[PAD]
[UNK]
[CLS]
[SEP]
[MASK]
là
của
một
và
có
được
trong
không
các
năm
người
này
đã
cho
với
ở
loài
những
tôi
đầu
vào
họ
ra
học
đến
anh
khi
đó
công
để
từ
như
thành
lại
thể
ông
làm
về
cũng

số
tại
ta
bị
phải
sau
sẽ
nói
sự
trên
ngày
thế
nhà
đi
chỉ
con
nhưng
tháng
tiên
chính
chúng
thực
còn
nhiều
gia
quốc
theo
mà
khoa
dân
nam
nhân
hai
việc
tả
thì
nước
hoa
nhất
hiện
vật
động
quân
cô
trung
bộ
đại
thời
đây
biết
nó
quan
hơn
lên
mình
cả
1
thuộc
đồng
trước
định
thấy
cùng
gì
điều
2
phát
vì
rồi
do
khác
đang
trường
hành
sinh
3
nào
rất
qua
cao
cách
lý
bản
mới
độ
viên
thứ
chiến
kỳ
xã
hội
tới
cơ
thị
hình
pháp
mô
nên
chủ
cuộc
tự
hàng
sao
thủ
giải
nhận
mặt
bằng
việt
xuất
rằng
đội
đối
tên
cái
dụng
đường
vậy
lớn
em
tiếp
vị
hợp
điểm
nhiên
giới
văn
tiếng
trở
bình
sử
hay
liên
thông
thường
tay
kết
phần
vụ
nếu
vẫn
bảo
tỉnh
tử
trình
ý
tình
kinh
sống
lần
giờ
chức
muốn
phía
ba
cầu
lực
5
tính
bạn
lập
nay
sĩ
diễn
khu
lúc
chưa
ngoài
tâm
bắt
lượng
tế
tin
tiểu
4
đánh
toàn
miêu
giáo
bao
sản
chuyện
thanh
đông
giá
thống
bà
tiền
ấy
bởi
phương
đạo
trọng
cần
loại
mỹ
tư
đều
tập
ban
máy
tác
đề
trận
bên
chi
vùng
tạo
tây
hoặc
phòng
y
bắc
huyện
hoàng
đất
nữa
10
tìm
nhau
gian
hệ
quá
đấu
minh
báo
năng
tổng
an
ăn
thân
bất
nghiệp
6
phân
a
cấp
tiêu
ai
phố
thái
tích
quyền
đoàn
địa
gọi
bố
đưa
thương
nữ
dương
nhìn
châu
nguyên
bóng
điện
trị
tài
thức
trí
tăng
7
cảm
dự
dùng
thu
tổ
cánh
xe
yêu
thi
phim
quả
##s
nơi
sáng
the
đô
diện
sư
thật
nội
ca
nghĩ
khoảng
vô
danh
hóa
tuy
phong
tiến
tham
mắt
nhạc
quyết
thiết
hà
nghe
chết
ảnh
đức
lời
giữa
tất
##a
hết
thần
bay
gần
tranh
trưởng
hiệu
lấy
chân
vừa
cuối
cổ
ngay
chuyển
8
hạ
chiếc
tuổi
thiên
vực
dịch
mọi
sát
đặc
nhỏ
giao
triển
đâu
trang
vương
phụ
đổi
chất
cậu
đình
biệt
##n
xem
i
dưới
xuống
hoàn
cứu
đá
gồm
hồ
12
bỏ
hỏi
truyền
biển
bệnh
triệu
kế
dài
tốt
chế
hòa
hoạt
nghĩa
thay
bài
thắng
từng
thích
la
tàu
phục
mạnh
cảnh
phủ
sách
gặp
bán
hải
đơn
bang
vệ
thuật
mất
dù
khách
cộng
##i
biến
thêm
bàn
hắn
m
sở
trẻ
mẹ
s
vi
c
giúp
nổi
mang
viện
tục
sức
chơi
lan
9
khí
lưu
tướng
chẳng
đời
mục
nguyễn
cứ
tinh
thư
lòng
tấn
cá
câu
thiếu
giữ
âm
of
dẫn
hậu
đặt
mỗi
nhật
phẩm
11
nghệ
nằm
tra
doanh
khỏi
chương
chí
ty
000
nhiệm
kiến
phi
cứng
n
giả
vũ
km
vấn
long
mở
lão
tương
án
chung
nhập
đứng
cung
lịch
sân
di
t
ứng
bọ
quận
giống
khó
nhóm
binh
chứng
##2
cửa
tỷ
sơn
đảo
kể
sang
liệu
thôi
biểu
du
đêm
ngươi
tượng
cố
gây
đồ
khiến
hạng
xin
độc
cây
kim
hướng
mùa
đúng
hiểu
chạy
cười
kiếm
quản
màu
vòng
ấn
luật
ít
lợi
dựng
bọn
gái
xây
chị
yếu
hộ
xác
sông
rõ
sắc
viết
hồi
quay
phạm
nàng
quy
mạng
phản
gã
lệ
kỷ
cha
giám
chàng
vai
chọn
mặc
đóng
xa
20
khả
ký
tuần
lãnh
mã
hữu
hát
phá
tưởng
trả
mua
luôn
chống
đủ
miền
lâu
trợ
môn
chịu
chứ
tối
khai
đàn
đạt
trái
kiện
so
rộng
hôm
tức
vua
nhanh
nghị
lệnh
đáng
áo
lạc
hồng
đế
giết
trò
cử
càng
ngoại
chuyên
bước
phép
giảm
vàng
hãy
đôi
vài
đáp
mấy
thổ
nghiên
đa
mật
trần
0
đoạn
vận
mức
đẹp
hạn
ma
chắc
ngôi
lâm
đào
in
thượng
nhiệt
ghi
địch
kẻ
trai
kiểm
lễ
dung
##e
kích
bé
chỗ
duy
huy
đấy
hiệp
thất
trời
triều
chuẩn
chia
15
nguồn
âu
hầu
##m
chiếm
chú
riêng
cáo
u
da
phó
kỹ
linh
nga
núi
to
tiết
thuốc
hưởng
trực
môi
thủy
làng
vẻ
dục
coi
tôn
lộ
lo
thảo
thúc
and
dễ
k
phái
vọng
cầm
tân
phút
đài
võ
đảng
niên
30
cực
quang
hàn
ng
sợ
trấn
2010
biên
xảy
lê
lớp
áp
yên
kia
vợ
đệ
khẩu
tuyển
dạng
đốc
de
chúa
lẽ
đầy
sai
lĩnh
lục
tộc
luận
kéo
xử
nghiệm
ngồi
cập
song
quảng
ngọc
nhớ
chiều
2005
cư
phí
chu
tỏ
vốn
tuyên
bại
trương
quần
cạnh
hại
tội
tố
cháu
lương
p
xếp
thuyết
lắm
ngân
quanh
liền
2004
thuận
đừng
lao
nha
vui
2006
mày
b
nghi
l
hoạch
chút
hy
khá
ngành
chấp
xét
tuyệt
giành
giang
e
dòng
căn
2011
bầu
tuyến
phiên
tịch
mẫu
phóng
ngữ
phổ
bốn
á
trách
ánh
đột
giác
thấp
bảng
d
nhằm
trạng
ủy
nặng
bác
quý
##us
bây
bí
trắng
bắn
chồng
lai
ngờ
hương
h
18
bức
dành
hạt
toán
nông
ninh
huynh
nền
14
16
cụ
hơi
à
13
cải
đen
thoại
xuân
xung
đăng
lăng
ngựa
nguy
tòa
lỗi
thử
hùng
hiểm
sâu
mai
đem
đỏ
##h
đau
g
new
2007
chữ
uống
giáp
luyện
khấu
vượt
##ng
tp
nạn
buổi
thừa
thẳng
##o
khởi
thú
lửa
ước
đọc
nhĩ
usd
##um
lá
nhờ
ô
đổ
rừng
thơ
phúc
tông
băng
f
17
tai
máu
rút
bổ
sơ
mối
giai
phu
mềm
buộc
100
album
chờ
truy
25
suy
v
cận
j
thưởng
trúc
tín
gốc
tam
xuyên
sa
gửi
hôn
thánh
tốc
trao
suốt
dầu
cục
19
may
hỗ
tránh
thập
khúc
khắc
sớm
tống
đảm
phú
dấu
dần
xanh
kiểu
nuôi
hãng
giọng
dụ
vân
khăn
tồn
21
cũ
đới
xong
sắp
thịt
quán
bờ
ơn
kính
bạch
mạch
lạ
vn
dựa
phận
ly
súng
mộ
nửa
nhẹ
mại
23
rời
giấy
2012
trùng
24
thoát
pháo
lạnh
phù
đứa
50
thiện
ngôn
cường
sóng
o
bạc
thạch
##t
co
pha
ngủ
22
nghiêm
thí
hán
##g
tao
thuyền
tĩnh
xô
đương
trông
đậu
bụng
r
chiếu
nối
chuyến
tô
mười
xúc
hoá
trụ
cuốn
mong
dữ
tái
liệt
góp
niệm
rượu
đẩy
ngắn
siêu
tiện
dậy
đích
kịch
sứ
ổn
thờ
nghề
trì
đĩa
chứa
dám
ha
ngài
san
ngăn
nghỉ
hcm
đám
cấu
điển
kêu
tấm
miệng
phối
nóng
lượt
mời
ngô
già
nhi
tầng
suất
##y
đoán
dây
dạy
tạp
thăm
trăm
nâng
tu
đỡ
trừ
phiếu
tải
loạt
cắt
tường
hưng
nổ
món
khổ
2008
rơi
tận
thao
tầm
hạnh
nắm
loạn
khối
bá
khắp
chiêu
đà
thậm
na
nhảy
tung
đợi
thiệu
thua
soát
huyền
ủng
rêu
lưng
ái
chắn
quen
xương
nương
tim
ngược
2000
bào
thù
mét
phê
khỏe
##c
2003
thở
mũi
40
hút
thẩm
khoản
vinh
màn
khóa
thụ
hàm
gió
nhiễm
ngang
khủng
tán
hề
chữa
mừng
ngũ
chóng
28
xứ
vĩnh
cát
lính
chim
đuổi
gà
sáu
31
##d
tù
chó
can
bày
tạm
buồn
chỉnh
chăm
tần
gắng
họa
truyện
bướm
phạt
ràng
26
khẳng
diệt
sửa
cúc
giản
1999
chặt
ii
bật
2009
thằng
thuế
vạn
đỉnh
vây
sung
cơn
tóc
27
khán
nỗi
dừng
mạc
chào
ví
hoang
nhu
lối
lược
tri
bánh
đón
hấp
thác
đai
đạn
kém
giận
trại
trải
vội
cặp
tan
phật
chừng
ưu
ốc
trưng
mưu
thầy
cương
mi
lựa
mê
cấm
tặng
tờ
tháp
ương
uy
thưa
huấn
hài
dưỡng
quái
2001
thăng
29
dị
họp
thôn
cân
cerambycidae
chảy
lang
ruồi
no
chậm
dũng
nhiêu
tệ
##u
hổ
mái
ngạc
dàng
##1
hẳn
hlv
lẫn
quê
hiến
kê
chùa
khánh
mơ
bò
hồn
trầm
cỏ
mưa
xỉ
thiệt
2002
đoạt
ác
dứt
tỉ
va
tớ
xưa
mãi
chấn
##ia
hoà
rối
sắt
kịp
trục
quên
cờ
khảo
trốn
quỷ
x
cam
kháng
phán
cà
hủy
bảy
tứ
nhắc
bậc
chủng
ẩn
thụy
ích
mực
lông
loan
tắc
cán
bom
quỹ
hư
##r
hạm
xấu
biện
hả
trịnh
lỗ
vườn
mắc
league
ngừng
lôi
al
đỗ
đo
bãi
phường
bỗng
tàn
john
500
thầm
gắn
tá
khô
cup
hào
góc
bi
bối
thuê
nh
mau
đòi
world
##k
ngại
vu
sàng
##idae
##aceae
200
w
viễn
chợ
huyết
lắng
đền
cháy
cựu
trúng
vết
game
sóc
miễn
săn
cướp
chặn
isbn
60
cất
bão
mộc
thận
tùy
tha
che
hung
tước
tuyết
đua
côn
york
nghèo
dao
cai
ngầm
khuyến
tú
nhé
sạch
xâm
dư
ngọn
lui
đe
ga
hỏa
tách
khám
hứa
hô
##l
dọc
thảm
vĩ
video
thọ
đh
rắn
gỗ
##ii
ngàn
lưới
ngã
lạp
tuấn
hè
nguyện
khiển
ko
trào
cú
cảng
đàm
tám
lặng
dường
thai
vỡ
kiều
kiên
lái
niềm
chưởng
2013
mệnh
chấm
đao
bồ
vang
hi
2015
ống
2016
cu
2014
canh
sài
nhị
bữa
mông
##es
##er
1998
trống
nỗ
vành
đinh
giàu
dọa
chối
đèn
bát
red
phan
giỏi
gấp
giảng
paris
lam
tạ
dáng
kênh
cưới
ân
úc
bề
chạm
bèn
tươi
điền
lầm
chục
ám
bè
muội
tròn
##b
trà
đẳng
hiếu
dạ
bách
thả
nét
ơi
80
dõi
ung
buôn
vong
sổ
ẩm
thước
ghế
vẽ
tổn
mùi
khuôn
on
trữ
đốt
mươi
hoảng
ư
dày
lộc
đan
răng
tụ
ả
hằng
trích
dược
đợt
trú
chụp
điệu
thỏa
##is
gòn
quyển
species
đập
xu
phức
kho
sẻ
khóc
bạo
trồng
đồn
cản
hoài
căng
thang
trứng
giây
##p
hứng
mu
xạ
mẽ
ép
ngọt
xinh
tùng
cự
túi
mãn
cột
ho
than
hẹn
70
web
chín
ch
điên
khổng
##x
tiếc
nợ
cẩn
tháo
van
lành
kì
ngực
300
hộp
ném
dĩ
yến
vững
hãi
gương
chúc
internet
cửu
hảo
1990
tết
giật
phấn
lừa
tắt
im
35
hiếm
tựa
canada
nhịp
đuôi
##3
chở
giam
man
karnataka
hiển
sạn
vỏ
90
hiền
lãng
trinh
for
vợt
chinh
dã
ngự
hymenoptera
túc
vé
mm
tàng
sữa
tehsil
kín
dịp
list
huế
đâm
hòn
cúm
london
luân
sót
não
45
ngụy
cốt
ngon
đê
clb
viêm
cừu
đằng
phụng
rãi
ấm
thẻ
le
mảnh
thâm
ôm
phe
khích
nhánh
sút
vịnh
1997
2017
iucn
cốc
quát
lô
tốn
trăng
lũ
se
say
kg
vuông
lùng
chăng
bến
lắc
soạn
dãy
chelsea
đành
dặm
nghìn
kèm
1996
virus
vâng
##na
mỏ
ti
mắn
khung
hối
kiệt
ngón
singapore
me
lát
nô
thuần
trạm
non
phỏng
vời
lọt
cãi
hoan
top
chép
bột
tào
giấu
thê
su
điệp
xoay
01
treo
iraq
##ta
indonesia
duyên
cổng
thịnh
bồi
threatened
mệt
nguyệt
cơm
##ing
huống
cẩm
ex
gật
khuyên
dinh
chìm
rau
mát
ruột
cm
ni
phước
by
milan
##ensis
gỡ
cỡ
thép
bụi
chánh
dàn
chợt
cám
quách
khẽ
hầm
tang
giường
##ed
real
vở
1995
1980
tràn
chuột
khen
chăn
giấc
trượng
nhấn
windows
đắc
32
bổng
nấu
hôi
sốt
khôi
bút
thiến
diệu
đựng
mạn
1991
voi
erebidae
khẩn
tuân
rửa
thiểu
mạo
lồ
##en
david
vay
cuồng
má
sàn
philippines
dò
chuồn
tia
hang
hận
tiệc
israel
nhạt
1992
li
gan
ôi
st
đồi
nộp
giơ
vú
##z
sánh
ngập
iran
california
bạt
bùi
ubnd
04
đáo
thải
1975
ạ
gi
nhắm
duyệt
bội
press
hỏng
bốc
đói
lữ
ki
cúp
1993
1945
arctiinae
chrysomelidae
leo
nhẫn
toà
nhỉ
sợi
rập
tề
formula
you
tọa
ngu
lào
trộm
khái
##5
brasil
malaysia
chư
quà
1994
bia
xứng
tảng
dâng
lật
tcn
nho
thách
com
xích
nhuận
thục
hỗn
mỉm
đẻ
lùi
thỉnh
mồ
xưng
ảo
thợ
xăng
ngư
triết
##in
400
mù
phiền
đặng
dính
vắng
australia
is
nhã
bấy
mây
lợn
đầm
eu
dâm
làn
tắm
xông
paul
bọc
cụm
02
bông
chém
úy
lò
as
tiêm
my
##on
##man
khang
thám
nắng
ngộ
from
gói
iii
tà
q
uỷ
mượn
phẫu
george
nhượng
thuỷ
ôn
hẹp
mụ
miếng
men
tiềm
lưỡi
james
nở
muộn
đùa
von
thiền
xá
trừng
mọc
gạo
màng
bớt
1970
kha
hâm
quế
giáng
tật
mèo
2018
dối
washington
huỳnh
huệ
34
đeo
khoán
michael
mỏi
36
lẻ
33
bưu
mộng
##an
lãi
ngợi
03
nâu
##le
bù
nhãn
1989
muối
lắp
robert
móc
lưỡng
ngoái
el
thiệp
ven
khuẩn
mồi
bỉ
múa
ổ
microsoft
05
bo
bích
hắc
1988
mờ
38
65
liêu
ranh
vải
sea
thiếp
phàm
huyệt
bùng
1960
phùng
bó
william
ghét
##ch
nề
khơi
ấp
liễu
bận
khốn
kiêm
ro
rock
arsenal
am
nhàng
ồ
thô
##ly
đôn
00
sôi
run
giày
khoan
elateridae
soái
lã
rô
lãm
et
liều
đực
bơi
37
grand
béo
ngưỡng
tỏa
đạp
thoái
thùng
hãn
trộn
lũng
nát
rẻ
bái
university
thơm
khuyết
buông
gợi
quyến
nụ
đống
nêu
city
khứ
lân
at
trôi
bàng
xóm
khôn
chuỗi
dắt
th
bếp
ưa
suối
quỳ
si
xưởng
tour
quét
tre
be
lạt
ức
nhì
euro
chuyền
táo
đãi
gián
59
chán
1986
trân
rồng
đòn
75
lộn
madrid
campuchia
z
with
thổi
tiễn
kỉ
07
1942
saint
đậm
lọc
48
khói
brazil
chôn
mỏng
khát
nạp
bê
đứt
henry
xà
luồng
cống
sụp
lee
thoáng
united
lỏng
nhắn
dội
cúi
1940
go
games
it
thoải
bám
tạng
thúy
##f
1985
peter
ngẩn
42
dịu
nai
xám
khanh
rắc
55
1984
08
1987
nhầm
1979
móng
tôm
đáy
chuông
150
đụng
kem
##4
séc
lúa
52
gai
##ll
show
##th
dâu
quỳnh
chớp
khe
lồng
ngắm
ngưng
trichoptera
inter
argentina
trưa
##al
xóa
nhậm
##la
limoniidae
06
thoảng
47
khinh
vả
lăn
rác
##v
khoáng
tráng
44
diên
liverpool
gác
64
charles
champions
dốc
túy
lấp
kiệm
nảy
tphcm
1982
mãnh
lây
gen
rào
1981
ngâm
1972
rỡ
diệp
châm
1941
gọn
ham
600
09
vỗ
mũ
sương
cắp
sỹ
trâu
del
pop
phế
vịt
thuẫn
ac
nghiêng
1944
mổ
khỉ
thung
mexico
46
gối
39
cưỡng
hungary
thạnh
##ma
ukraina
cạn
sáp
1950
google
rực
1983
tuệ
vươn
khiếp
##ra
dẹp
mâu
vung
website
sam
hoành
##23
ngạn
1930
mao
khoẻ
cài
nút
sưu
lư
kình
sườn
ðại
gánh
1978
dọn
tơ
51
martin
mẫn
ngốc
ổng
bẩm
trật
bền
chẽ
khoái
1943
800
ngơi
lệch
uyên
ireland
chả
##to
43
huân
khâu
nồng
pa
hở
dồn
hạc
kiếp
gãy
thomas
qui
ghép
##ella
roma
tê
mỡ
đươ
49
##ka
41
ong
lỡ
vách
râu
richard
khớp
ừ
mến
nhan
nấm
hưu
ấu
rung
tóm
1976
pho
khéo
1968
càn
bar
lu
khoá
xi
der
nhện
##ana
củng
đắp
chén
son
chốt
đt
zealand
sm
sen
miếu
cắn
cóc
nhược
oh
dời
west
kông
tặc
lạm
53
dê
250
tụi
phượng
nghịch
rạp
óc
syria
thói
măng
đoan
ngột
vọt
pin
nhục
1973
triệt
ngoan
cắm
củ
hoại
barcelona
chua
gạch
đ
history
cong
trùm
nhạy
mì
##iana
##da
kìa
ve
gò
tồi
nhựa
cước
chớ
ngó
tràng
cáp
đớn
lầu
54
thản
đắt
cậy
neo
ruộng
1974
cởi
lướt
lặp
trọn
maria
thầu
vơ
doãn
khiếu
eo
ướt
dải
súc
war
##ina
##os
nhường
trượt
quyên
hãm
##li
he
mạt
mo
1965
tokyo
gạt
giãn
nhiếp
ơ
italy
##ne
khải
vẹn
1954
smith
ghê
fc
ri
ngươ
56
harry
rẽ
bayern
en
phẳng
điêu
iv
thèm
dại
nén
thề
louis
1977
lậu
1939
##ca
1946
lạng
đúc
hét
one
music
mark
dập
cối
simon
thùy
frank
lơ
##j
khống
chai
##no
fa
ngục
khiêm
jean
dệt
khuất
mảng
mậu
re
khoác
##oides
blog
1967
1963
phun
##co
hoạ
fan
nhũng
##ha
file
1964
tui
hiếp
phiến
tím
chốn
lau
##te
1971
dặn
##30
tí
bộc
hoãn
rũ
ngừa
los
heo
244
rã
park
57
hò
##ri
nòng
thủng
1936
lánh
85
france
giặc
ngụ
pakistan
xí
700
72
vạch
khiêu
manh
trễ
đam
chiêm
nhung
trạch
câ
1920
nướng
thắt
chìa
jackson
nọ
bế
hong
58
des
táng
texas
juventus
sừng
sắm
dạo
tịnh
berlin
american
oscar
thoả
1969
trác
tản
hiên
sảnh
120
cành
apple
thâ
bệ
axit
sếp
bỏng
##ton
chọc
xen
gấu
love
273
cd
bush
english
nghiện
ghé
trán
tom
phổi
vãn
út
đả
tv
1962
air
mỗ
##nh
lằn
mò
62
vượng
##ica
dc
dvd
dỡ
cua
lứa
quãng
ván
1956
khâm
all
dở
##ro
1966
ts
anime
tụng
south
scotland
or
ớt
sùng
cớ
tro
rốt
đắm
bắp
asilidae
cúng
méxico
tủ
95
hốt
##st
king
thốt
ưng
liêm
tẩy
kh
thoa
sướng
bì
kong
1955
giọt
kĩ
ka
manchester
chê
bực
vâ
mầm
cuộn
cỗ
1938
protein
hoạn
jack
vitamin
xách
thỏ
##se
nấy
khoang
nhóc
mập
don
nan
thạc
224
tiệm
chen
##sa
xê
hụt
huỷ
đính
tát
nốt
mail
mc
lí
hố
##ya
lặn
bẫy
ngẫu
##ic
hân
vol
##re
té
1958
bill
##son
vất
##ae
vũng
đâ
phất
ào
ngõ
mắng
thằn
phiêu
##ko
1937
bể
thiêu
1947
cay
neuroptera
chốc
sói
##mm
toan
niêm
rủi
túng
sâm
set
bành
63
sv
gay
ben
series
hot
84
mòn
1961
lót
1929
buồng
tẩu
ngạch
hái
sur
đạm
lường
ray
yết
tt
mary
nhơn
##ni
bẩn
black
cuba
gũi
1959
##6
edward
nhọn
1935
##el
olympic
kiềm
1934
biê
tuyền
len
khê
nhai
sub
khoảnh
oán
wales
thấm
ôtô
suýt
##ti
ao
né
sô
mặn
61
cưỡi
báu
1957
friedrich
1891
lén
pda
chẩn
rớt
lấn
chui
1914
khan
##ea
www
76
miên
sét
vuốt
joseph
đếm
mốc
gõ
nãy
láng
ngắt
66
trắc
il
nobel
ốm
uefa
super
billboard
##at
pp
oanh
tỳ
star
est
1949
vietnam
khương
1931
oxford
##land
1953
đệm
ngây
bin
buýt
bừng
uyển
1900
tr
duệ
hoằng
vờ
khuê
muôn
khoe
we
##w
thấu
sốc
colombia
ed
tấu
kiêu
thpt
##it
hao
xoáy
palestine
online
xoa
88
1948
pro
1951
lõi
chặng
ph
##đ
thự
lũy
tựu
afghanistan
đè
bầy
oai
ky
nhịn
67
nhát
international
xé
up
mẻ
viếng
##ba
dì
quạt
seoul
lụa
north
68
##sh
lạy
xế
1912
carl
italia
pc
hal
cẩu
##7
nếp
rùa
oxy
bổn
life
angeles
hiv
hít
rải
##ine
quật
wto
sh
họng
xả
vã
cưng
trọc
đuối
chèo
cp
74
oan
per
chiết
1913
ê
that
apidae
han
anna
dong
tăm
1918
##de
kẹt
khiết
vnexpress
roi
nại
1933
sanh
há
đàng
##as
karl
nhặt
1908
live
ầm
rộn
##ga
francisco
1952
ủi
huyên
pic
mìn
##ki
mồm
1932
##ar
hitler
77
entertainment
cambridge
sun
1916
1922
fifa
gắt
ngơ
nghênh
##et
quí
lội
un
radio
##ie
xuôi
khốc
chùm
82
71
bùn
bóp
chì
99
xướng
xót
1905
young
cõi
vê
moskva
##pa
1917
1911
nạ
1925
73
lụt
ghen
jones
phơi
##ense
putin
phì
1924
nồi
ngạo
bần
guitar
ngất
nôn
nuốt
clip
978
trội
tâu
chà
chướng
##ck
1000
lung
bồn
sải
nhiễu
81
gục
rèn
trướng
alpes
váy
ếch
##do
87
1906
hu
lùn
##ley
brown
1910
##ata
mac
lột
dán
khía
83
tể
liếc
ðiền
doạ
ồn
ngào
diêm
gầm
69
loire
bóc
78
giếng
điếm
bấm
gậy
day
nhốt
thiêng
nộ
rạch
thối
hoả
dừa
alexander
taylor
loa
##me
đu
rụng
rễ
chile
nghiệt
time
serie
bu
who
chênh
chip
santa
nè
dryopteridaceae
##ge
victoria
khép
barca
1923
86
dơi
79
xảo
1927
dật
1928
soi
val
rậm
giã
ru
96
are
tị
ronaldo
williams
1919
tiệt
ke
1909
diego
quấy
trói
polypodiaceae
bbc
tuỳ
##ry
căm
khử
nàn
đấm
náo
net
times
bôi
scott
lincoln
lầy
group
micro
pennsylvania
myanmar
villa
hn
nhăn
hừ
xiêm
jobs
venezuela
rạng
pan
thính
bã
đạc
tảo
cọ
kề
khoát
bulgaria
##ur
khao
dai
po
chuộng
national
peru
ngòi
manga
gd
êm
1895
##opsis
baker
radar
les
ngửa
sờ
gặm
900
##tus
diễm
intel
florida
kép
gìn
1915
trọ
samsung
johnson
kitô
##atus
ji
bô
lều
bìa
130
mường
gu
lg
nắp
te
sấm
##di
##or
trù
gầy
green
92
illinois
##bo
chửi
asean
lẹ
đùi
white
ten
uss
hollywood
đắng
românia
gớm
br
##mi
hs
cò
albert
xít
elizabeth
léo
http
đốm
điềm
big
đục
vđv
gene
guinea
98
khoai
diêu
ok
##id
min
disney
cuống
ðào
sáo
pseudo
xôi
model
was
ngà
sony
back
##ula
nang
dực
ngao
gdp
nhủ
chổi
mạ
dỗ
##tes
1926
đổng
hawaii
##lin
vứt
walter
khmer
cồn
thày
thắc
will
gray
camera
##q
chicago
mép
costa
thò
virginia
xơ
rỉ
110
columbia
lẩm
cđ
1921
##ek
max
phẫn
rách
rể
wilson
benth
thuở
ngãi
bơm
##si
kẹo
nứt
valencia
airlines
uk
hổng
hill
##sen
kon
steve
centre
uốn
vôi
ngấm
thét
hook
##am
carlos
serbia
inch
lượn
lanh
hoán
hạch
media
phàn
1903
1898
trơn
opera
diệm
xì
##der
para
rio
##ium
sex
##go
gas
slna
tò
ngần
89
ohio
đèo
aids
bén
arthur
lăm
đắn
joe
java
lờ
phen
gốm
##ers
sọ
sim
trơ
tiê
hệt
chay
kẽ
1907
nhức
phím
tru
hông
thà
lừng
##lu
robot
yahoo
##ion
chằm
dưa
phách
piano
toa
gởi
libya
cau
chật
##ius
nhàn
giục
sập
1904
##ria
93
nóc
premier
tiệp
nhấm
nhào
ngai
lách
pierre
mini
chắp
1899
1897
vẫy
91
liga
##ner
sri
khuynh
rệt
chuồng
â
kệ
dan
langdon
minnesota
##ke
nhọc
halictidae
reo
christian
mịn
bit
hạo
##va
nhở
nã
rob
##ville
chéo
xấp
nham
1896
rỗng
mắm
vo
ráp
lở
##8
rose
taxi
vff
first
vấp
hăng
##ura
alex
jordan
##nd
ad
##20
armenia
chanh
bồng
ak
##inae
adam
tửu
ion
1902
chuối
vòm
nigeria
wang
phô
croatia
##tz
ali
qu
còi
cù
##den
khuya
megachilidae
wall
##mo
##ter
australasia
rạn
tòng
acb
op
hước
kí
97
hall
##ak
##ji
##é
hất
rét
ms
daniel
243
thẹn
juan
lay
this
mig
##gi
chè
hèn
##ẫu
gót
thelypteri
bơ
xao
##nes
xua
chót
lề
rick
chuộc
ngả
##ns
ecuador
1894
fox
us
tand
giềng
cấy
khố
ðan
câm
moore
đọng
latin
quấn
giò
america
journal
news
mĩ
rủ
bẻ
rong
hms
phác
1901
gân
##za
jan
nháy
gượng
chao
mác
điê
văng
mụn
##ifolia
##ce
aspleni
bob
côi
ngoạn
180
marie
94
nản
gs
vướng
nể
aquitaine
her
club
##don
##be
chải
ngưu
khiếm
rộ
nhạn
mé
trá
vớt
records
vá
roger
nhuộm
stalin
lđbđ
wilhelm
mr
broth
đậy
hươu
##so
boston
đẫm
gừng
thuyên
uất
au
ottoman
alan
mon
trèo
newcastle
dẻo
lít
chiên
nón
tony
cia
shin
blue
rhône
trỏ
email
congo
sn
bịt
##14
lựu
ken
kìm
đũa
##ian
schltr
rome
rước
nhâ
federer
rưỡi
ðoàn
mtv
ngậm
225
1889
art
búa
##wa
chọi
vòi
she
yểm
your
eugène
iowa
sấu
tem
##ler
tho
lườn
giêng
out
nê
bọt
unesco
houston
432
vặt
##jo
sar
lộng
giở
lận
##ger
play
đặn
##ov
chris
đày
os
tấp
##osa
thình
division
beckham
##po
##ze
##ten
dakota
lẫy
đư
town
house
sảng
vác
350
xoắn
##ber
vóc
nấp
sọc
royal
tiger
##gen
##les
##era
davis
phiệt
1890
tạc
tụt
##chi
miện
inc
sp
đun
linux
chang
##21
chói
chạp
sầu
british
140
tnhh
lúng
lọ
##orum
not
solo
aircraft
nokia
awards
wa
mp
##io
##odes
fu
gươm
lặc
mb
part
ngặt
night
cockerell
360
jong
##ja
cole
##ô
post
yang
ah
jin
hoi
ja
1878
##18
buồm
##em
nhẹn
und
chan
gieo
bong
youtube
kansas
ap
bangkok
ráy
vụn
pi
ku
ipad
##15
1885
sụt
land
##il
mg
nick
##lar
his
sch
vy
fi
xoá
sầm
nguyền
nouvelle
lanka
##lo
##sk
101
khất
books
##ren
trêu
160
chậu
jo
east
teen
ướp
rót
cụt
mike
luyến
best
bromeliaceae
##ve
nghiền
rôma
dna
ắt
mài
castile
stephen
latinh
nhíu
miến
chước
sưng
sủng
edition
cày
allen
pottiaceae
bell
ltd
ðinh
old
ge
company
1859
ủ
hé
thắn
dè
obama
lâ
##ho
hey
hẻm
ar
nư
facebook
yeah
jane
muô
antonio
##omyia
đôla
ráo
nhuyễn
toát
nến
dj
##ts
ju
jim
tdtt
hễ
bón
mar
pu
##10
##fa
org
băn
college
bả
stone
##du
##mb
mobile
nhí
vớ
boeing
ron
dang
publishing
rít
trút
##ling
##su
ngọ
bon
rỗi
1893
franche
sào
thâu
##ul
keo
hc
gào
yu
algérie
viền
kenya
khoăn
island
toả
ya
bú
dưng
đắk
nhô
miss
gom
ford
off
##nia
pteridaceae
luis
que
##9
kẹp
mont
##atum
##mer
##bi
##icus
lewis
quầy
xăm
high
society
1875
viê
##tt
##daceae
##sky
đốn
bạ
tạt
bus
##kin
camp
ải
great
1882
##bu
trươ
bă
football
nhổ
eric
##cha
qđ
vắt
nhấc
missouri
comté
ngẫm
chuyê
ỷ
##zo
ss
dồi
hp
##ol
mùng
lyon
single
thẳm
##mu
##tum
wu
matt
thềm
hacker
thảy
panama
chau
ea
center
vụt
michigan
choáng
ne
ivan
chích
105
ðông
##00
oliver
sydney
1879
thắp
muỗi
ram
cạo
marshall
lả
open
grammy
die
clinton
little
fran
rầm
mí
school
two
bính
merr
1886
gả
sin
bừa
thong
nhâm
harvard
##ei
server
jr
##45
síp
ren
chòm
gam
miller
chồn
hách
power
hit
sỏi
science
festival
##ý
diều
xx
mourinho
ờ
1870
ngủi
bourgogne
anne
poly
rà
##17
port
thới
1860
carolina
phả
victor
##19
hydro
riedl
trâm
thạo
canxi
cược
phao
cừ
andrew
thoi
bruce
good
macro
búp
kiệu
##nus
romania
jung
ròng
rồ
like
ab
##oc
hột
nhộn
china
queen
anderson
sững
tiếu
porto
what
tâ
hiê
trợn
kuntze
cháo
##tis
1880
vặn
got
trẫm
##ation
iso
ðức
##km
samuel
rang
##ju
hủ
kiêng
phôi
1888
##ru
cọp
tottenham
spin
alfred
conservation
normandie
grant
street
##berg
##ran
1869
cọc
sẫm
nà
tel
laser
điếu
##ev
roman
francis
occitanie
đố
xẻ
rảnh
walker
rooney
##ez
nung
nhưỡng
##ola
state
điểu
card
ngỡ
##ski
hóc
##ano
##ham
chă
won
nu
phò
cacbon
ibm
sir
za
##pe
##op
##ot
##ois
free
wisconsin
chảo
bal
andy
chase
##ys
kị
vii
xay
ngửi
##renidae
125
has
nhúng
jazz
font
pe
##ty
napoléon
kevin
##50
fo
kíp
củi
##mar
nếm
android
choàng
den
##by
tẩm
jun
nặc
brian
amp
par
##one
xix
##kov
acid
eds
nlđ
ngớt
chầm
monte
vatican
tý
lửng
##shi
##ny
nepal
gang
massachusetts
2020
xíu
1866
hat
nguội
bưng
1864
bank
##vi
vtv
450
##pur
dance
##lan
##ad
##ì
ngứa
giặt
munich
león
sẹo
1887
1877
asia
nhuệ
tấc
xát
1892
1873
lốc
##tu
haute
miệt
##ci
rổ
rùng
ngói
vò
kali
mitt
dr
nhích
bad
rãnh
owen
##tin
ðằng
##tra
henri
xào
uh
##16
hốc
rìa
hassan
rao
czech
everton
pre
dạn
wi
phil
##alis
thoạt
thcs
studio
##ph
võng
ching
1861
##ay
##lis
##net
##ate
##sia
ip
thêu
meloidae
about
las
vẩn
##che
mốt
xp
đái
gruzia
hen
##pp
lẩn
howard
##rus
nhồi
natri
kilômét
moon
chập
1876
##ida
madagascar
cđv
##ac
gáy
norman
##nt
hì
nato
##field
1883
tỏi
trổ
hans
1838
general
##ê
arkansas
1871
om
##sch
dubai
kẽm
đò
vùi
lazio
##lia
roy
1874
1884
236
1867
truất
macedonia
dằn
##san
river
ludwig
hop
úp
##í
kèn
slovakia
ðồng
##eus
sửng
tivi
##ara
lẽo
##men
perry
khuếch
bửu
cross
robin
##aria
how
##ist
book
over
ep
tuý
schmidt
abu
nasa
1881
##á
douglas
1863
then
tum
jose
home
flash
ana
bry
##han
lawrence
beta
guide
vần
hagl
bangladesh
gordon
hê
diễu
tưới
chat
hă
##ops
hòng
paulo
volume
vladimir
##cy
jersey
saddam
ngạt
dào
##tia
berg
nhét
##ron
##ong
##hi
terry
lim
gb
albania
tanzania
##kh
bor
giun
##ard
mă
sòng
ix
cổn
##12
nghiến
hanh
charlie
vút
quất
##sha
##ster
research
boiss
electron
giê
but
clark
indiana
franklin
##ps
nhôm
tỉa
seine
luộc
đấng
metal
1865
xiết
lake
nhậu
1868
nhũ
loáng
bel
luer
wayne
stress
lóc
cntt
ferdinand
visa
vảy
nhấp
##tor
rầu
sành
usb
ver
bân
gán
morgan
dn
1862
btc
fpt
đtdđ
gặt
##un
líu
trặc
rịa
xbox
rẫy
ạt
blackburn
cape
belarus
uông
são
girls
mị
silva
sol
uruguay
site
carbon
chưng
##nar
er
phanh
system
link
##tan
ryan
kè
rượt
sha
tốp
108
ảrập
##lon
arecaceae
ze
chày
georgia
astragalus
gp
boy
##ris
rica
##iensis
alice
cưa
1850
ngỏ
if
katie
caesar
226
colletidae
##ini
##ring
trăn
##que
yếm
1858
philip
xài
nọc
khiên
team
##ens
tít
end
gary
mía
tẻ
monaco
##yl
phồng
pradesh
watson
phà
bẩy
mor
hú
ye
solomon
page
bass
mv
dép
manila
##ss
##ver
institute
tánh
xii
mịt
project
khùng
##ai
##ey
chầu
ngoặt
ferguson
##eri
okinawa
uganda
giương
rú
amazon
##ino
kai
##cus
gar
220
##anus
170
josé
1854
hãnh
way
râ
bridge
steven
##ianum
xáo
whitney
sỉ
kennedy
mal
rơm
đuốc
ag
đùng
mâm
##iella
sarah
hon
giàn
##rin
tambon
##0
khăng
##wood
jimmy
ngớ
lình
thán
cút
1753
1857
sục
hip
oregon
##zi
wild
##cho
trát
story
viii
ập
hun
candèze
##ity
um
nom
patrick
alaska
hựu
##min
iceland
bolivia
##rd
##line
##ero
sưởi
##ller
khỏa
potter
donald
ny
1836
hỉ
gregory
thiểm
chart
kan
hd
ðịch
nậm
##con
1830
##ram
key
liban
khước
sê
adn
vằn
herbert
##ipennis
mẩu
wei
girl
santos
auvergne
ôxy
##ir
rò
oa
ðổng
have
win
slam
more
deportivo
##im
light
##dy
nhái
sudan
##ment
pv
át
noel
sặc
1848
##mann
7871
turner
uổng
frederick
woo
##dan
sk
lejeune
messi
bolton
mồng
moscow
quạ
lem
liêng
##vin
german
gold
vụng
mâ
hcv
dền
kara
ngác
birmingham
liu
mordellidae
##ky
##ite
1851
kiev
128
otto
sky
batman
fe
1849
gioan
einstein
mớ
villarreal
euphorbia
##ena
ất
urban
##ut
1846
logic
1872
ang
năn
nới
atp
madonna
cantharidae
golf
tipula
baltic
##yan
second
japan
rợn
nord
##uk
độn
mênh
onthophagus
jacques
hymenophyll
##ita
queensland
down
nầy
philadelphia
point
điệt
parma
ross
ngước
háo
##ich
ùn
nôm
tì
jon
playstation
marine
viettel
wood
nintendo
xiv
stuttgart
pacific
chát
đán
mono
##48
var
mega
240
vạt
nhún
pas
monitoring
baghdad
mil
sultan
lady
thây
thìn
phai
đăk
phaolô
dứa
award
1845
##per
cruz
rủa
vù
wright
chóc
honda
sophie
##fi
nhiê
thệ
1840
giăng
christopher
lhq
109
##ang
quỉ
toại
thon
vỉa
kar
##tr
fbi
bỉnh
film
115
quăng
portsmouth
##nchen
car
dạt
central
sc
xuồng
rên
##anthus
jerusalem
office
chiê
1841
##ị
codice
dượng
lượm
biếm
iphone
digital
gội
##wi
mk
##mon
phồn
hauts
ara
##ff
tiều
##mp
amaryllidaceae
sara
band
1853
ml
đơ
hand
##com
##ds
alpha
information
kazakhstan
yo
lồi
cào
litva
##ism
ðàm
230
beatles
grande
##11
get
anthony
jay
michel
##cher
hỷ
lin
amin
##des
pfalz
museum
nđ
qaeda
phào
##fer
loãng
sái
copel
ethiopia
pr
chdcnd
##nen
##pan
thắm
champion
genera
shaw
je
nadal
##nis
anti
##he
massage
levi
jennifer
lười
marc
bới
nghẹn
102
nỉ
marne
##bar
hắt
##well
nao
phảng
xộn
vắc
cuô
clarke
nelson
vạ
dicranaceae
giỡn
sal
download
1844
quặng
uzbekistan
bv
blake
dấy
dave
leon
xắn
104
135
nv
##ans
kate
vỹ
vó
carter
##stra
aston
lon
##del
##ah
##iae
trans
sủa
320
socorro
galaxy
far
bùa
##icola
3000
##icollis
nức
ronaldinho
now
arg
xiii
murray
unicode
##ice
bậy
malta
bìm
vincent
##au
tetra
mít
there
cằn
##cu
##idium
mart
xvi
hỡi
axít
loét
##ney
thừng
carex
type
##yo
ngán
cameroon
mân
fernando
103
tía
network
valentine
##ani
pedro
powell
shi
marx
sachsen
tor
marketing
cal
baby
bênh
113
##gan
jake
##ant
dậu
next
break
bâ
explorer
puerto
semi
##ceae
sul
##ianus
rẩy
##ras
##my
750
mào
cactaceae
line
thiều
hussein
ráng
giêsu
alexandria
tanh
##je
##ell
##dia
hòm
##tidae
call
lẳng
thốn
rheinland
newton
mer
justin
##mus
yemen
mõm
shah
tennis
hypnacea
##dar
##ifera
bremen
tua
zaragoza
bou
cằm
nhơ
bời
nghẽn
nghẹt
##rat
nhúc
global
cáu
##gar
encyclopedia
##gu
adams
fr
nạt
moi
cat
kelly
tụy
fulham
oda
just
toạ
rachel
toyota
##ford
rico
##van
ted
uý
marcus
##we
##ish
tủy
torino
##up
nhoáng
tuột
wimbledon
jesus
trãi
nín
bengal
sharp
##13
usa
giòn
tumkur
colorado
palomar
channel
heart
gđt
nano
##ua
pridgeon
brunei
mải
##sin
scandal
đăm
family
bún
review
fort
arizona
metro
juve
méo
##burg
psychotria
lenin
gon
dĩnh
well
ferrari
báng
đẽ
ia
bobby
last
tuồng
thát
mầu
gộp
states
1856
trump
##ken
két
walt
trệ
##cc
barry
their
##edo
franz
dream
championship
swift
kham
##kan
nova
harrison
roberto
barbara
mủ
lucas
its
nỡ
estonia
thuý
chr
##bre
ghe
##rs
##ene
##kg
bự
đkvđ
parker
tuôn
đờ
mit
dark
tuất
##tion
quẩn
ngóng
ðây
papua
##ku
chĩa
corporation
quậy
ry
banh
leptoceridae
bưởi
##ovich
nixon
băm
gr
service
napoleon
xổ
banks
yuri
lepto
lẻn
brom
fire
jeff
modern
##rum
##ó
gaza
cac
standl
##anum
thớt
western
matxcơva
raymond
campbell
russell
ct
227
đoản
váng
rap
god
sấy
cher
nanh
cỏi
vầy
gio
prince
zo
106
##anl
trỗi
##ora
collins
arn
tamil
christ
development
thóc
multi
190
chệch
1050
empire
ỏi
tbn
amsterdam
liveshow
náu
bứt
hớn
see
ber
tởm
khiêng
hee
ðang
csg
gates
gabriel
betis
##tar
sevilla
sicilia
myanma
##ros
schleswig
jason
union
dơ
kolar
##rt
ball
phỉ
ann
##pi
lampard
##ous
111
vnpt
107
ngượng
nhữ
earth
rider
##hl
melbourne
they
7845
shevchenko
hí
hắng
##icum
dragon
delta
soul
human
##fe
lisa
mississippi
neu
kane
234
112
gtvt
##tic
angola
##eli
mãng
jaeger
natural
okay
stark
hđnd
nhờn
ralph
johnny
let
##ik
hamilton
pen
húc
pol
1847
vegas
gracillariidae
hoắc
koch
mướn
fax
1842
lõm
##pha
ghana
nagar
ngừ
chèn
wars
sharapova
mượt
blair
##ban
##ct
nhợt
pra
##ioides
##iya
nhè
sưa
mỉ
hờ
lốp
catherine
cribb
road
blu
chộp
xôn
##40
##ef
##nu
lụy
ngoãn
##yn
ian
castro
noctuidae
africa
gram
##ira
ajax
studios
id
hamburg
univ
dean
spring
search
frankfurt
carol
##iz
##eský
##ova
giảo
##nam
tunisia
đởm
trư
##osus
toản
##tica
1843
harvey
cook
alexandra
index
gt
##res
##ven
sộ
zimbabwe
giùm
uẩn
khóe
194
margaret
dẻ
benjamin
hart
publ
adriano
bernard
ðịnh
ngỗng
tột
##vn
##tha
1837
##ab
baden
vái
kuwait
bangalore
cặn
phone
slovenia
hyun
roosevelt
117
hard
meta
##aw
toronto
titan
##the
hăm
##hara
1827
vãng
cưu
rụt
##án
rèm
other
đúp
england
nhe
##ting
century
niệu
127
1852
khuông
luke
tơi
nheo
1824
pat
paraguay
210
epi
sumatra
##kar
spa
athens
kền
rasmussen
auto
year
clo
lhp
apollo
bôn
kavkaz
fed
es
bra
úng
túm
gro
angel
borneo
##age
vầng
vượn
kamen
gdđt
##ato
age
##nik
armstrong
battle
găng
##inus
ober
pdf
gaga
caribe
hydropsychidae
##ou
khoanh
brachy
data
qh
wolf
hđxx
súp
bói
nhạo
550
##bach
nạc
ceo
##qui
lút
brad
khảm
nude
btttt
bond
sò
giằng
holstein
##sson
jonathan
nuối
ec
phở
núp
southern
sierra
1833
##bel
sho
tehran
myrmeleont
masters
##sy
norfolk
rầy
udinese
rành
hoóc
xịt
provence
ounce
cooper
zidane
kurt
dicran
ngời
1800
thìa
vét
ros
thòi
noi
ngoa
guy
ps
##tre
junior
thiêm
##gel
plan
##zu
edu
gập
death
giuse
cyatheaceae
mút
julia
tròng
fred
##rea
lasioglossum
nicolas
vệt
qatar
##ipes
khuấy
##olo
##cm
jacob
association
johann
gấm
280
kang
bẹp
august
##len
##zer
##way
ngạnh
7843
bull
jang
2019
##uma
nách
mịch
lia
##est
athena
visual
##uri
điếc
matthew
##bra
##mont
calo
pmu
1839
ối
kiê
county
##cia
##ok
warner
##oi
##val
##andra
siết
răn
people
dầm
express
##ifolium
cợt
stephani
chần
feet
tommy
pictures
bundesliga
lopez
chô
##br
vía
răm
soo
pays
##tv
golden
152
khom
azerbaijan
take
mão
lei
buốt
lóe
khàn
##vo
force
1855
garcia
text
abc
por
tày
##à
dictionary
medvedev
dìu
lún
mol
palm
guadalcanal
##ies
urb
##ale
acacia
bầm
alt
rán
1832
##iformis
ách
bahrain
mikhail
three
côte
fall
##kai
sean
bai
##om
xui
magazine
robinson
alabama
kyoto
##rk
valley
xù
nhảm
billy
maroc
leyte
650
mel
nem
kra
##hu
chàm
##tel
boris
india
260
beach
116
##gb
##eo
water
nít
gun
tưng
##sematophyllaceae
##ep
chổ
nistelrooy
##thi
rich
rafael
ser
##ach
##bon
conidae
cholesterol
muhammad
when
mars
col
mễ
miami
##zen
ră
270
##ud
milano
engl
phillips
palermo
##antha
##yama
arafat
##pus
sergei
novel
guam
vơi
262
nhõm
tệp
1834
latvia
tủm
##mat
begonia
ipod
cẳng
viet
daily
giỏ
steno
##cl
ngàng
under
bru
delhi
hewitt
law
four
thẫm
sound
napoli
psv
raul
trĩ
heinrich
bung
##tte
sệt
khắt
pitman
##urus
##eng
fiorentina
chiểu
hùm
montana
hiu
major
âl
##lla
sparta
nong
most
julius
rình
##can
anthicidae
bịch
##pr
yong
bruchidae
##yu
góa
muricidae
trứ
stanley
cộ
##yi
##ulus
sharon
das
computer
##rich
bur
nguyen
benfica
piper
timor
logo
chằng
indian
small
gui
lombardia
bét
sớ
nicholas
darwin
ngoảnh
graham
gala
ll
kat
lỏi
cap
126
vế
az
full
nhả
cor
##halli
know
amy
thompson
led
dãi
xỉn
hộc
triền
ðó
maritime
platy
kaka
1825
##met
##ding
chử
##af
asian
mass
gel
short
118
hunter
senecio
##32
phắt
đít
114
mun
enzyme
##tur
chrysopidae
vãi
evans
heroin
sỡ
tỉm
harris
har
hằn
cairo
rạc
##gon
##rg
orchidacearum
ẩu
eto
aleksandr
##if
bretagne
tợn
##22
##tal
ur
##ska
mấu
hypn
##rn
mercedes
derby
giông
##lus
##aea
palace
made
lóng
liệng
xiếc
ó
collection
ðình
sửu
##iflora
##ehir
dead
##ker
##ichi
ol
vẹt
lì
láo
dell
##lt
dẫm
rom
##urfa
rosa
ces
saigon
##ure
lố
quai
ukraine
đẩu
##cker
scincidae
bhutan
laden
##ung
cameron
ðạo
aleyrodidae
danny
side
123
pgs
muỗng
abraham
ĩ
##cal
cent
##dal
endomychidae
wwe
##gh
tằm
zero
##ive
tennessee
praha
toi
zu
osaka
wenger
hugo
after
cạp
##ín
hunt
krym
rhynchit
đă
##tos
##eta
alberto
gù
roll
philippe
brachytheci
jam
gerrard
dollar
ce
britney
đần
vẩy
5000
wan
manuel
dấn
##illa
santo
marseille
pm
mari
##evich
luxembourg
sảo
lord
maya
trừu
europa
eun
nơ
##ric
bl
av
1831
iron
bot
stan
bern
santiago
publications
##tti
reed
gil
lị
hót
##xi
atletico
venus
lẻo
make
##las
vs
145
rọi
##vás
##pro
helen
##uli
bird
megachil
rchb
155
jae
##let
##ello
vadim
schalke
##elli
##stein
##rie
karaoke
studies
##ier
##ary
main
yen
guatemala
##ala
##ew
##ms
sivas
southampton
ụ
vietnamnet
bs
##low
đĩnh
thỉu
lự
gă
wittmer
doi
case
het
124
đút
creek
presl
mori
claude
##lam
core
mw
aleyrod
marco
bologna
trảo
##ota
cer
andrena
holmes
leuco
122
kent
rolling
nitơ
1828
sá
byzantine
singh
some
nạo
work
119
noãn
ob
lecce
kor
lẫm
leningrad
cấn
##har
nêm
shu
rảo
carlo
mario
##wan
haiti
susan
sphingidae
database
uni
mỳ
were
gài
space
luồn
pharaon
cham
carey
maryland
adolf
chóp
##sc
had
duỗi
##ow
7853
##bal
khét
middlesbrough
mách
xviii
foundation
dylan
sand
##ye
##ima
##pu
ou
##ret
##ide
##ben
##pin
biếu
into
charlton
laptop
hức
hetero
alonso
reagan
sahara
doc
jamaica
##ap
tq
jakarta
##ona
yak
talent
kit
evn
pyrénées
hờn
hindu
##art
##oni
850
kunth
##tter
gằn
nịnh
175
##ori
master
philipin
##mes
phớt
kay
##86
alba
also
sán
spears
systems
hack
come
lạch
version
##ada
ronald
jefferson
jerry
ballad
##ese
riết
é
mas
libăng
121
xốp
đát
##nin
andrei
##hr
bướu
chechnya
lennon
sạt
belle
gao
trọt
naga
maha
buck
##gr
mali
pink
andré
370
mallorca
dick
panchayat
place
##lejeunea
tortricidae
wikipedia
trick
##bin
ashley
bặt
##bia
nôi
vks
march
our
hieracium
dầy
ay
claire
eddie
military
giu
kin
phông
isaac
xoài
rát
ðúng
buột
business
rê
field
vén
totti
lìa
luống
##gy
##ika
ảm
stewart
giầy
seattle
tricho
harold
tươ
eva
which
vf
##cer
ð
##zan
elmidae
##ld
leonard
dixon
lă
##ú
pit
bis
caroline
##fo
lòa
somalia
##pet
nevada
##una
xói
felix
##sel
##icornis
hermann
ngo
bali
dos
princeton
babylon
ward
airways
cpu
1829
##mas
alexandros
thuột
##oli
jura
roberts
dryopteri
trafford
lác
##ology
aires
pokémon
afc
bismarck
cảo
boys
friese
khuỷu
dar
ðột
bella
abdul
##ito
##osum
##ơ
##din
use
schum
edwards
buenos
hơ
1810
256
ngáy
132
emma
study
xo
##ser
samurai
arnold
atlanta
sing
test
gàng
pablo
yale
##rio
phạn
ria
warren
##ryaceae
kén
ricardo
nghê
xéo
bèo
library
dei
fletcher
kihôtê
mez
sực
1835
đản
torres
strand
virgin
firefox
##ari
navy
##jan
cagliari
horn
cang
final
##cs
##car
##gia
129
nhang
hẻo
thót
tiễu
venice
1826
hoc
sum
##gin
maps
##her
ccd
##ray
imf
wells
bernabeu
larry
rợ
kv
hol
##è
forest
##sta
xỉu
còng
sei
stein
kal
mozambique
leverkusen
##ix
##ides
drogba
khế
special
bđiểm
schimmel
khoét
##enko
titanic
schwarz
mè
##num
1500
##vis
xước
hợi
chững
geneva
##odon
cật
name
##ft
snow
gaddafi
dùm
mad
rốn
phiện
##able
html
muell
leeds
box
##uta
##iv
head
##ây
mobifone
tong
##hal
publishers
đỗi
kun
##oma
pitt
##ec
thặng
years
##tro
chài
deco
mes
thă
ste
concert
florence
airbus
denis
croton
trẻo
doraemon
máng
bas
ernest
##of
sắn
view
165
polypodi
137
găm
forbes
crassulaceae
here
dermestidae
diana
eugen
punk
##aris
universal
epidendrum
ontario
tur
french
penalty
yan
minas
stanford
búng
nin
berkeley
stuart
garden
xỏ
siberia
dâ
##port
136
andrea
tokugawa
piedmont
hopkins
##pl
vista
ttg
chơ
eugenia
right
##ido
europe
orleans
dặt
boong
lindl
sant
oklahoma
mitchell
plant
photo
##ias
proton
premiership
mương
mae
##ạ
keng
language
cuồn
octavius
raw
petersburg
standard
khong
giễu
cầy
htv
sci
##ico
ù
greene
quercus
bướng
##ins
primera
dí
##ón
pete
maine
manhattan
##24
nện
7889
7879
lảng
carthage
ninja
##ent
xv
charlotte
##ex
born
##ste
only
face
##az
luther
vieira
##red
namibia
cover
anton
management
mccartney
since
cội
giovanni
montenegro
rey
ðồ
##ase
espanyol
ngùng
quýt
miguel
nhằn
ðược
truật
rặng
vienna
antoine
xâu
trảm
cõng
malawi
sociedad
nicaragua
timberlake
zhang
##var
chừ
software
reyes
##ã
thor
peri
pô
songs
emily
xúi
salvador
##ông
##ili
bun
linda
pyotr
giỗ
ash
suzuki
seo
sankt
elena
apec
dallas
urani
beijing
ryu
##onia
133
quẻ
yểu
fish
arts
ger
jiho
figo
##ub
nor
cass
apg
dia
official
đọ
##aya
liếm
##eh
lucy
orange
##sto
steyerm
hiệt
##ator
pak
##ui
lucanidae
tuế
piero
##zy
##oidea
khay
child
##side
baltimore
toái
dùi
af
women
râm
tw
georges
ala
417
##off
nùng
austin
sat
maxim
stockholm
##sis
slav
ngải
##hn
tót
##dr
##tina
rương
johannes
mỉa
sunderland
##cio
##25
lợp
mill
diesel
bục
suôn
lắk
dioxin
mountain
gandhi
148
quì
##ali
330
thốc
pascal
him
vữa
gran
hực
phình
loang
bịa
deep
teo
chắt
bryan
andre
##mel
##nc
thố
cqđt
article
cớm
vina
boat
##constantinopolis
bosnia
pt
azur
clorua
##ble
##fu
himalaya
kerry
ðến
thun
parthia
ling
##ert
fighter
venezia
147
gilbert
evolution
nsưt
nhút
luzon
rice
141
níu
jessica
arm
zambia
army
istanbul
##rit
ngùi
##xa
luc
##star
272
ub
hell
holt
vạc
kurd
rơ
138
crespo
7841
144
attelabidae
##tta
greg
works
##tri
aaron
##pt
orthotrichacea
silicon
hannibal
##ech
social
ker
##los
rìu
ngụm
##100
##sar
hinh
ter
bamber
##od
lcd
complete
din
bịp
ocean
##ane
hudson
araneus
report
thoắt
##lat
desktop
kastamonu
mei
joan
ửng
pur
tủi
quặc
##feld
##ao
amd
##ee
thiếc
balkan
##anensis
block
##41
sta
##lit
singles
##ue
public
##jin
honduras
bít
##long
ế
met
khấn
original
syzygi
stamford
7901
louisiana
bol
fraser
chùi
134
choạng
1812
austro
##lea
sofia
vư
##ovi
pyr
sars
weber
mancini
khưu
xoang
bở
grace
thiê
bilbao
silver
hiro
shan
##ks
hamas
sồi
quyện
blume
roddick
quắc
##cis
tele
niger
fleutiaux
doctor
nad
##ela
##ringen
##rp
neville
##ag
catalan
schumacher
fm
##ò
mello
trau
biếng
núm
131
atlantic
##chu
mozart
văcxin
môt
chun
sten
##ets
ừm
control
dom
maurice
1806
miles
420
##mia
tavares
xuyến
sport
verlag
ðầu
vừng
dendrobi
raf
khờ
trũng
messina
morris
wo
marcel
trinidad
stevie
ứ
nou
mẹo
cuốc
jacoby
hemi
cannes
olympia
##gue
pla
nature
birds
##mara
oải
nhàm
laura
winter
montgomery
ðã
panzer
drama
word
hiềm
##60
acer
340
academy
xuẩn
krông
prix
lac
basel
photon
guang
1789
robben
chryso
cồng
##ellus
rapper
xvii
luỹ
ernst
rocket
##arius
mason
1801
ló
arena
nắn
suk
diva
code
php
secret
aragon
mur
##dt
gre
flo
##ted
xy
fair
katherine
saône
stalingrad
wind
##ire
bee
stevens
britton
##ence
jeffrey
óng
christina
kahn
brandenburg
minor
##gs
augustus
sakura
janeiro
willis
##eni
ain
visco
##bro
mah
churchill
cafe
never
european
moraceae
sl
xinglong
##are
hannah
nikolai
copy
thươ
nat
geo
rụi
happy
hũ
1820
##nica
platia
ign
520
##tas
ef
twitter
##sii
lily
ghz
vèo
atm
bluetooth
itunes
##ett
siena
##elia
##52
vồ
homo
neil
through
pil
albo
calvin
237
level
ie
holttum
##zon
chiêng
kèo
bio
gãi
uttar
cola
pachy
pleiku
##gal
fiji
##ig
asp
ðường
fishes
##kawa
sato
heidelberg
trụi
gal
nhói
##dong
nài
##ther
madison
colin
nực
nết
wat
gadhafi
ankara
gmail
wagner
australian
thóa
kẻo
242
##mis
##dae
gor
edo
dennis
ios
wigan
siro
##nig
container
shimoga
hormone
palearctic
idol
magic
##ax
quầng
##cor
tien
##less
##tsu
380
rống
nhớt
coenagrionidae
143
plaza
early
##ien
pet
genève
iberia
action
delle
weise
tae
oz
##dale
simpson
dế
sy
edge
##dra
scholes
quyệt
rhin
365
##phylla
app
vắn
xiên
##phyllum
animal
pod
##shima
khuyển
ae
480
ridl
rihanna
viktor
spam
voss
mat
brothers
##ves
mandya
nhũn
nebraska
##lé
gien
##ls
cựa
mare
troy
dam
##nan
monroe
##pogon
kyrgyzstan
đoái
##enberg
##sei
brescia
tvb
mẩn
##dis
athletic
mecklenburg
##ges
trầu
giư
##chan
##gui
##chon
##town
nành
utah
francesco
britain
theory
##moto
##head
lynch
api
technology
theridion
tmn
##õ
kosovo
country
146
blues
ever
trót
pickard
cùi
##dor
##opus
##cle
##ml
mọng
##opteris
summer
##chia
##abad
##ette
moselle
angkor
dòm
ds
să
brooklyn
nghiễm
##ư
747
mach
quàng
##zin
ibn
been
##rei
gô
hel
kuala
áng
dion
movie
demo
##pen
##ssa
##cin
dog
store
budapest
oracle
ahmed
cữu
sto
##eu
##usa
gonzalez
mứt
mascara
phêrô
enterprise
serena
jesse
jamie
mariana
pires
dỗi
phnom
hq
đom
agassi
arc
pala
1805
craig
mhz
roth
mysore
bros
tễ
vựng
sherman
thọc
quáng
station
142
access
mix
bart
sebastian
zhu
kam
ama
##bri
##rttemberg
franch
sw
nhăng
xêút
ton
order
##nas
biếc
phệ
erica
bailey
phra
fisher
ganh
mohammed
klein
sarawak
track
laurent
glenn
taliban
diệc
185
pal
zeus
##more
syn
dận
hường
crystal
trojan
512
vorpommern
taka
talk
smartphone
vck
đươc
nẩy
johns
tb
goetz
mod
##omys
265
loạng
vksnd
bruno
giấm
seri
civil
mitsubishi
safin
res
blood
culture
quota
dreadnought
##anahalli
pri
nathan
##ral
thaksin
maggie
rằm
anhalt
##ere
notes
212
##out
phăng
##kha
franco
##bus
salt
sap
gamma
hui
##str
horse
today
teodor
##stone
vh
bach
139
##300
mó
##illo
##aki
oxit
phích
1802
##mura
copa
##bert
1821
kaiser
sil
rain
palau
need
thinh
design
nguôi
đóm
audio
##lai
leonardo
nòi
dẳng
pass
215
310
dăm
##og
choang
reuters
note
208
đanh
quyê
elvis
vồng
cnn
ngõa
malpighiaceae
lena
##anthera
luna
##sing
nhỡ
trạc
putnam
rhine
celtic
dô
kid
tuông
nadu
##sp
cucurbitaceae
sampdoria
turin
yoon
205
malaya
##oz
nấc
calli
thorell
voice
ðừng
##tch
ăng
phèn
nigro
pax
hói
##tl
162
275
ielts
harper
pana
organ
kentucky
phâ
erik
##oa
class
tuốt
lane
half
chẻ
busan
zi
benitez
gọt
vancouver
##ifolius
7897
203
engel
##oid
department
kashmir
lou
mul
##és
georg
speed
mey
rúng
nỏ
nxb
cis
vẳng
ql
nicole
yi
sexy
rex
cr
hác
##and
motorola
linnaeus
gm
235
##ão
hye
bert
##ophylla
##là
keane
rè
castle
click
wallace
1815
290
knight
tã
megan
rangers
nua
##via
hills
đéc
lumpur
mind
brand
arab
pot
cuatrec
duff
saha
phanxicô
phoenix
capital
hua
##500
##bot
##etti
##oderus
sports
##ado
arrow
gerais
gabon
pl
petro
##phi
dae
1819
philopotamidae
where
gustav
##idia
##lor
fer
##ema
hope
pardosa
##xia
leicester
historical
##eb
bud
alto
##nder
roland
iaea
neutron
##200
eugene
gy
form
phẩy
195
sciences
peterburg
312
ft
##31
##ửng
tectari
##back
mekong
quây
generation
##bur
húy
mueang
##adi
gv
##sti
##elle
##eti
##ln
torre
kenneth
##gun
##zel
##aro
7875
gru
##eum
conus
##800
chực
want
##ales
nees
##bank
múi
abbas
samoa
vinaphone
northern
##pho
murphy
gracilis
gin
ổi
##sterreich
joo
##pal
##lg
cell
lịnh
fdi
xẻo
grey
410
##oka
thào
hiroshi
pholcidae
hughes
chòi
bicolor
chinese
grove
motor
hara
mận
mancha
bro
yuki
tara
154
##emi
germain
zopheridae
match
houten
199
149
hoe
sent
##uro
##aga
thomson
ðê
##zza
erzurum
249
lance
sweet
calais
##65
lepanth
ngổn
penh
##fin
mafia
nancy
diels
##av
ghì
pixel
giẫm
chiang
ngan
##ele
##ob
yokohama
pierce
mửa
7873
braun
2021
vectơ
barb
limited
nhụy
nập
guốc
##war
quặn
command
fast
ngách
##ugh
##osaurus
square
tz
salvia
vat
athyriaceae
rum
yoshi
206
angela
nhó
maldives
christmas
##ness
hử
introduction
eriksson
petr
olivier
vary
number
giggs
1818
181
canon
##wat
sd
##beck
basic
rhein
melano
osasuna
calisto
đật
capello
##ux
##thy
silla
lép
oman
##iceps
##enburg
##yev
kw
libellulidae
tord
cisco
bat
táp
##rak
host
chận
flight
##pes
##eg
tòi
##ces
samsun
why
jet
##ophyllum
##eur
thụt
raven
moltke
tillandsia
đéo
liềm
eastern
##hếch
##nie
quắn
joel
ngát
beth
bug
##qua
ficus
bentley
gỉ
##bs
tamerlan
gla
lima
hững
##kal
fat
hổn
hillary
náy
engine
csgt
cleopatra
davenport
leipzig
xòe
hispanic
##ago
209
atlas
mia
hero
vera
##iva
##ila
192
coca
fur
##iba
1814
##uga
211
##ifer
##35
áy
##chy
rin
philippine
manisa
thy
178
act
vp
##ati
copenhagen
foster
paolo
toni
wal
nhác
omega
maría
thuỳ
cara
yoo
hawk
##dere
kirk
future
villas
belgaum
low
##ade
chirac
ôxi
rodriguez
duke
pizza
menu
dốt
##ssel
##chen
penn
##uch
naruto
##té
mt
andes
aguilera
ðiề
##bit
jolie
nakhon
joanne
heli
electronic
sên
khêu
239
##gno
##kaya
rhodes
##set
ufo
##bb
##47
african
lẩu
disco
##uensis
char
nươ
aleuro
##qu
##anda
tép
xỉa
rossi
between
fairmaire
abdullah
bmw
rết
poa
five
thỏi
based
bch
mos
casino
rĩ
dortmund
##ophora
guardian
tành
157
##zh
chocolate
##tai
eury
##lay
nero
fuji
##non
153
217
gyrinidae
mathias
frazioni
151
ngầu
cogn
diê
ul
opec
gale
wb
##oda
cạm
##bey
vao
cre
233
polymer
player
yamato
bd
##54
revolution
japanese
giếm
nhầy
7899
##28
chông
norwich
brevi
vali
start
vin
lùa
##house
beat
##chin
april
gomphidae
rod
##eon
andrews
bag
louise
pound
published
207
race
##eno
touch
1823
toefl
hấn
morrison
cs
albi
anthuri
156
héo
edgar
richter
nhẩm
education
202
lauren
iris
oise
assyria
lọi
ðương
daryl
tar
hugh
party
carr
đtqg
frodo
elegans
rech
ir
##ore
midway
đong
did
##dam
nghé
đc
##iformes
##leutherodactylus
##uda
##wer
true
vor
wonder
##ă
melan
##gg
ace
ngoặc
rwanda
tróc
sid
bt
tyler
portland
213
electric
##yang
malcolm
biền
dột
hypo
##lot
176
thuấn
pavel
##bor
connecticut
drive
jump
##ama
168
charente
vnd
cacbonat
tab
dĩa
moldova
danube
spencer
##dus
seven
saudi
gâ
abe
keith
##shin
##lle
michelle
aa
kant
##lum
vest
sbs
broadway
greenland
domin
1803
##ré
##cea
##heim
late
proto
nhòm
lev
##rc
##ộc
subject
russian
liễn
msn
222
stra
loay
map
nhá
igor
june
wta
again
ring
davies
cheng
415
164
plus
beck
hood
jorge
4000
malaga
middle
racing
stelis
penta
qa
##uf
##55
weekly
pomina
ngợm
morton
nần
1817
##win
bolshevik
analysis
takahashi
##uz
##ulata
nệm
aviv
ðoạn
woman
brussels
porter
amphi
##lly
mata
chồi
tax
trớ
##par
##lov
xở
korea
versailles
reference
kremlin
chuốt
tc
rì
karen
rna
salon
ibrahimovic
##worth
##ante
mir
enzym
nép
richardson
toshiba
##dd
kt
##evi
##kesir
oxi
molophil
vtc
peters
gẫy
##hat
phơ
gạc
nhím
ðá
baly
##42
days
##ward
lot
nghĩnh
##ân
231
travel
messenger
embrik
cyathea
chồm
edinburgh
money
cf
bệch
ghẻ
##eria
resort
coast
##carpa
cali
201
##pis
ancelotti
schi
nhừ
##ij
vip
marvel
nobita
cbs
violin
fischer
metz
ðể
boas
rus
cyclo
##ries
look
cheo
fabricius
##rai
1804
lost
pont
clijsters
ono
325
304
cộc
hừng
duẩn
##rac
##etta
ari
cardot
##bat
gibraltar
hilton
fra
mus
214
229
##ifrons
eriocaulaceae
reitter
##cum
shop
nẻo
ná
167
castel
510
vun
leone
dà
xantrô
church
alain
259
bristol
felipe
##64
lip
ùa
##ille
dẹt
##eth
republic
brid
##rna
hđqt
profile
cad
stu
ancient
##imi
mara
1775
johan
##eda
7913
eucalyptus
gắm
wake
hotel
##jet
livorno
316
##hy
297
lindsay
unix
##suke
##ance
159
della
dys
sullivan
stock
seung
harms
whoa
ei
ré
lloyd
myszka
shiite
##eva
##ovo
158
kingdom
##lic
lăk
##chel
hou
##apa
tráo
521
ev
##mark
crypto
sụn
insulin
hớt
cohen
177
##rah
##eau
1813
chikmagalur
##owski
tủa
une
##tc
chửa
kyung
##py
martins
persie
cro
viking
vv
oc
fly
##và
##ware
ngh
abramovich
253
##gram
omar
xavan
cứt
auckland
nhuần
##idi
district
tràm
firmino
##ib
mirage
reggina
##39
172
geotrup
xịn
216
names
yama
cty
##wo
allium
##rb
##ote
##26
graf
bợ
7911
mount
telecom
casey
gekkonidae
turridae
module
glen
nghiêu
cândid
cyrus
kiết
pav
##nagar
sunni
gồ
chít
djokovic
pasteur
foot
##ole
cươ
derek
##iga
tie
##cke
robbie
mira
court
dana
ngông
front
tamiflu
fre
##rian
lund
##nk
hời
châ
##tii
dó
bei
mọn
ủa
802
440
##shan
##iaceae
xuô
##sberg
##ique
##escens
##tech
305
santander
##iro
sitc
sà
##72
##nor
##end
đay
saipan
##quin
##46
kiatisuk
leitão
ðệ
nhứt
hển
aki
shakespeare
bre
stefan
sạc
mala
bonaparte
##05
barney
lion
bc
alb
##rica
specialist
sẩy
mot
mazz
cy
food
##lik
niedersachsen
prime
erich
quýnh
clay
novo
xiêu
nháo
robinho
percy
##ose
base
gothic
mumbai
board
##rô
berry
##burn
##all
tell
turkmenistan
capitol
kepler
remix
##far
##nos
xén
elaphogloss
aviation
pao
##pat
1200
algeria
stars
##kl
eleanor
mozilla
nieder
174
leopold
lđbđvn
ultra
panther
clara
uranium
ố
getafe
##uru
hạp
kạn
rogers
chùng
lươn
mag
##lac
nhọt
chơn
sr
##ile
1822
##90
##mg
rita
ole
bàu
phyllanthus
mordellistena
hyper
genus
##phe
kol
ic
josh
wing
aero
7907
##tto
204
sả
lea
##ọ
giựt
schust
mercury
tóe
flying
wii
turbo
vel
hor
##29
vẹo
gulbarga
julian
newport
cl
430
zen
peperomia
showbiz
soạt
ða
##oh
lèo
nigel
punjab
ghềnh
scarlett
norton
vinci
hoay
##rot
liber
med
anura
950
mui
xavi
meyer
##cr
dent
dõng
wil
cord
sue
still
rei
171
tripoli
ellen
oslo
chừa
##cap
chếch
quark
183
holland
khít
price
joy
##ée
ellis
fighters
gilardino
tajikistan
ice
konya
mwc
helena
##king
##cat
health
animation
leconte
##ites
vector
gua
season
zhukov
bốt
room
##anga
kbs
##wick
trezeguet
nana
nielsen
viola
hem
##cht
kheo
ree
##itz
katrina
tank
tằng
albacete
utc
ames
mỏm
valle
cleveland
alexandre
dominica
willd
naval
bứa
ulithi
rural
lùm
fone
##cera
mine
##ổi
##hausen
aderidae
rưởi
hanover
228
173
##ania
yoga
ramos
moldenke
##kara
switch
ruiz
lđ
gps
sứt
mall
gara
ortho
##1000
##zia
lb
phantom
too
franc
mánh
302
kei
##mor
fun
togo
benz
##lak
phiếm
warszawa
##ios
miq
##nae
pie
strauss
betty
tasmania
mona
village
griseb
renault
morning
hiroshima
lòi
oliv
acanth
163
##sus
múc
total
gol
##sz
kobe
##gas
245
perez
yushchenko
nsnd
finn
##nya
333
##sso
##400
boro
found
198
volga
##kas
boa
##phan
kềm
macdonald
182
put
##sai
xantho
nhẽo
##sse
##asa
218
kata
baill
jules
plasma
hannover
khà
gaul
219
##ful
mode
##mal
tamsu
pentium
##esi
uế
gra
255
ewa
ut
toang
tộ
arroyo
##kel
##ming
ngút
quadri
bp
ural
obi
kill
bống
1788
cồ
hokkaid
##uff
butler
vieri
mohamed
bankplus
##igera
flow
##pia
chôm
##ishi
166
ardisia
##air
ú
nile
carvalho
610
nghếch
lab
vic
third
##oko
kas
nhử
##ule
bing
soviet
##ava
rim
179
bolus
##dea
faso
1798
xoan
cox
221
##kt
janet
##bình
ark
sons
##â
clubiona
neckeraceae
moses
##osoma
##hen
eisenhower
nháp
chievo
##ank
diamond
##sco
este
187
rise
ptolemaios
##cos
##ple
mọt
lè
logan
##rata
##nal
body
yeon
ði
richards
rông
##sey
dha
television
wolfgang
ravenna
bet
1758
benedict
cesar
corn
##nch
161
io
roh
vỏn
revision
lionel
##zar
lept
ass
xú
##hei
##gawa
kom
trel
kiền
##idus
nepticulidae
dynamo
huýt
nice
tôlic
##shu
tè
tower
##sal
mợ
diyarbak
1816
##iko
##ấp
giâ
solanum
rưng
change
##iger
barneby
mauritius
westminster
##oensis
dante
manche
limnephilidae
pirlo
downloaded
hae
kiss
gem
leg
##oy
ox
tree
ballet
##bara
newfoundland
orlando
galileo
todd
kissinger
##nier
ghost
allo
trust
triple
cry
meteori
ore
kad
##bury
carroll
vittoria
ðỗ
chamberlin
223
dông
315
188
mclaren
quẳng
##ới
forster
ðạt
bursa
##legalov
189
##ù
emmy
pad
cech
selen
stop
colo
gỏi
burkina
pedley
xúm
common
##61
##ên
##lei
marina
##ome
##top
nghinh
##ball
fujiwara
nhại
##insky
##stus
##lim
hiđrô
trảng
191
smart
planet
albums
yun
maru
rumani
connor
trụy
##pper
duoc
dậm
##sil
720
##gger
buô
ville
##sley
rodrigues
children
##dos
hù
đìa
##lock
##stan
comics
chester
hemerobi
hyundai
style
mả
yuan
##nema
annie
fl
javier
rovers
##opogon
vacxin
insee
1600
##illy
og
liberia
luca
1792
nbc
jen
concerto
sg
lấm
ôxít
vít
##court
vicente
##lc
double
sailor
kb
economic
nhao
csđt
##pel
##nta
##nov
croat
hởi
thím
lille
hđbt
rommel
bari
chuốc
sunday
303
306
care
hemsl
rama
rené
##vy
thé
hil
reynolds
##die
herzog
nedved
##inter
rền
gerald
abel
##ick
joachim
khư
iss
##ieri
##das
##nat
dis
bavaria
biography
exo
vnch
##rae
##ardi
geographic
masa
##sburg
khản
array
##lp
##world
238
##ise
royce
security
htm
loé
nina
aus
htc
pay
##sca
kềnh
véo
berlusconi
fantasy
henderson
julie
##cul
mba
##spor
540
cruise
cold
##phon
911
peace
kiểng
##lepis
##62
##iopsis
disc
nur
bla
pia
account
crawford
guinness
habenaria
oaxaca
ahmad
##ợ
kawa
##ffe
##lobus
islam
barack
cristiano
record
##700
lehmann
##och
sms
##nea
andreas
cassano
##yer
##inia
fin
xẩy
pages
nhót
indo
##ery
##gus
jima
carmen
storm
##82
nặn
640
##33
kamikaze
dấp
chuy
##uc
197
md
scandinavia
##elo
##kka
habsburg
pérez
rudolf
ngáp
kana
bremek
noah
phyllo
##tino
lycidae
kir
bặm
turbine
megapixel
truồng
koizumi
lat
cotton
watch
rui
##nther
##én
lind
garay
pom
hâ
184
##maru
pterolophi
blechnaceae
phập
390
##ucci
820
corp
##vas
sihanouk
hampshire
loranthaceae
sud
maxwell
tech
conan
##rov
orchid
##skaya
##eira
eb
petit
##fan
senegal
cuội
nhối
check
mother
##rl
palmer
polo
##phora
frankie
dida
hello
##vel
fissident
dennstaedti
dy
gáp
ks
##ocarpus
sherlock
##etz
galicia
ðà
rev
sậm
sùi
krishna
264
169
rh
nod
ebay
creta
mid
##issa
hòe
nghén
gọng
##ington
adele
keyserling
##card
gđtla
##ð
##ches
crete
cost
##tella
reg
##tine
##yr
322
##sko
bohemia
giuseppe
gợn
ngọa
361
560
##run
dl
vnn
bourbon
normandy
def
eri
pseud
##tana
##gate
##rol
##uchi
julio
miranda
##aca
##nsis
196
oi
1808
##lie
karate
steel
##fish
werner
đoa
##glia
cricetidae
lockheed
trủy
maradona
7891
pack
##sum
tip
help
gardner
##tho
riley
giàng
trề
maldini
##omi
lảnh
euler
dry
kyo
ndt
##real
scan
assam
470
ðao
vcd
356
##iri
marathon
##600
biology
##uka
nhám
##ping
##dai
production
lum
dal
kur
spyware
edmund
marion
fortune
thiển
flavo
basque
dev
kraenzl
woodsiaceae
ptth
##dic
theodore
claudia
toledo
bosna
ắp
##jima
ein
cla
seleukos
nghía
bradley
dh
##ocarpa
nă
bul
##nde
ibrahim
ayutthaya
cache
éo
##time
xó
375
##asi
##lde
##pon
château
7869
afro
bod
##ning
angelo
yển
spirit
add
casillas
pandanus
buffon
##dium
ghẹo
##aux
spe
bđs
##mir
adrian
##71
285
winston
##38
apache
comp
oang
champa
wave
annan
penang
dúi
khẩy
government
đượm
columbus
##ière
document
##ated
kum
##roy
ple
ayd
tun
liberty
##tec
dodson
tokat
đẫy
knowles
seth
cabin
pac
color
shock
calvados
passalidae
flav
drake
puy
aceh
193
gióng
##hel
marianne
254
##nai
watanabe
ericsson
phết
rolls
232
##kere
##alo
##erson
shell
dạc
naka
morientes
café
chin
##eck
mora
319
lơi
cska
turn
dmitri
810
##tani
luang
##ston
spruce
nitrat
##rr
six
sabah
##ptera
##dl
testosterone
wide
##ox
##kk
classic
save
eagle
diospyros
kro
##isa
##horn
rush
##won
##nic
nash
wong
nhẽ
detroit
xốc
mảy
turk
gsm
##roma
glasgow
gertsch
##dom
motors
##dorf
##vor
##culus
##ớng
##boro
werder
chanel
tran
vyso
xắc
fleisch
hoffman
uv
burundi
them
finch
prae
monica
mis
interview
schneider
wiki
plants
irwin
plze
phúng
ami
beautiful
tắn
bunge
##lio
mak
barnes
tịt
##see
299
adelaide
selys
rữa
saxony
kosterm
hwang
##ppa
##mos
##pod
cope
andaman
##có
silic
258
313
beau
##92
nov
edwin
##ôn
fine
##amba
##nga
##lee
aya
bey
meso
dươ
botswana
chitradurga
ramesses
đbscl
kap
emilia
ls
##nit
alternative
jenny
vaccine
rec
##ghi
choice
##cca
##cken
sạp
discovery
suyễn
##els
reese
308
friends
ỉ
##tula
savoie
hardy
fabio
falcon
deutsche
sám
trĩu
virut
germany
1807
joon
norte
papa
##ticus
##udi
emerson
##ụ
louvre
db
tầu
xơi
sophia
##esia
mann
edited
##sak
josef
húng
khua
##etus
commelinaceae
##jar
##mit
giorgio
herman
program
tùm
nagasaki
montreal
alderw
rhyacophilidae
inca
##uba
##70
460
olivia
dem
##rou
rocky
xán
##pla
##uni
##pura
##hai
##iano
##tp
##saurus
##ode
cru
peckham
hecta
handbook
cọng
##gna
##bek
thửa
brock
##usd
scar
7885
nation
sứa
hexa
burton
##nitz
legend
mbc
laboissiere
rebecca
political
vênh
##37
186
##sol
269
xiềng
elinor
garonne
dỏm
starr
caribbean
angelina
alps
sấn
vision
zoom
sỏ
mimosa
##aba
##garh
hei
melanotu
##mma
sco
ballack
gallery
hấu
##vet
##toma
islands
hautes
think
##sho
ðặ
bốp
##ute
nq
##lab
##uể
chửng
oak
##ars
lep
tango
##arra
elliott
##olycentropodidae
yokosuka
cichlidae
duncan
chùy
##stad
##tiêu
pjico
ðộc
hanoi
##ais
nil
many
##ulosa
chuôi
##gam
##und
fidel
##asia
khoé
##med
##cina
rou
alessandro
guyana
jonas
##34
elst
bư
sanchez
khóm
cast
hector
##rom
##ulum
gate
bềnh
252
plo
heavy
rijkaard
stapf
freedom
sentai
1790
##iye
hank
nhoi
##tm
bớ
##ization
flora
##anthe
##dens
##51
sven
raj
##cas
quẹo
bae
wushu
gắp
hoffm
cave
##nell
##rgen
hydra
##escu
latino
##ự
novgorod
lườm
##ề
mống
ói
roche
grimmiacea
412
nara
manager
molly
##chai
marcos
##gle
##ami
##mani
near
colombo
pteris
trầy
jos
incheon
ata
step
bh
console
##hab
asen
oricon
tuýp
hcb
##fl
later
##box
395
avi
##acea
lịa
gudjohnsen
bombay
bean
kursk
mou
chuck
##ings
aff
kou
##mun
530
cyan
becker
glitter
princess
vưu
kami
bonn
fissiden
cốp
johnston
plagiochilacea
##bun
desmidiaceae
engineering
anfield
ost
plagiochila
flu
julien
lipid
ethan
issue
vienne
##aco
##wal
hancock
ớn
trâ
##log
machine
dublin
##ár
male
##tem
takeshi
1811
lâng
##oro
before
cyperus
memory
glossosoma
##sor
hagen
maximilian
1809
đẽo
dv
##rina
energy
ruổi
merlin
torr
current
ada
ueda
popular
búi
##pre
wy
##chev
estrogen
garcía
macmillan
polygalaceae
hull
liliaceae
toro
hổi
ship
##lina
centaurea
tuộc
##rman
info
leuc
##ume
chloe
burtt
lủng
grouvelle
xxi
trồi
##đa
279
eve
570
##pm
sphecidae
##tol
ươm
##pc
##raj
pari
wow
celta
##lf
rứt
soyuz
chernykh
teddy
##nay
gloria
##dou
aspidi
tâng
##hem
##bil
##eto
##ès
chỏm
kyle
hin
nico
620
musical
##aspis
carrie
mett
boot
canberra
mesa
xẹt
charleston
nar
257
##cent
##ăng
bahia
huang
bed
fang
allan
andhra
311
seiji
pos
doug
curtis
##rim
essex
webb
##hor
mích
aba
dendro
schult
xysticus
sảy
commune
uit
##hm
stre
fame
antalya
sacombank
yozgat
òa
##anta
campania
##gor
chù
##dera
##43
737
425
range
soundtrack
##odont
ngợp
sì
jungermanni
sainte
##inger
##ship
2030
lex
alberta
295
bahamas
would
leslie
miconia
hieron
##vir
ek
bẹ
##anh
moss
isa
folk
fri
##oun
rhyacophil
##dio
##rensis
bartrami
reid
luông
vt
minsk
trệt
cos
##bes
xoăn
lụi
324
hk
oánh
amur
kings
aden
##tier
314
chạc
acoustic
cyrtandra
captain
##lyn
translated
uhmann
mecca
630
bala
##ovsky
fund
##hito
mòng
dale
bf
idaho
ðịa
taekwondo
beauty
##hua
basil
stam
ova
blade
hide
##bet
moto
aga
mut
##illi
richmond
##tahya
411
##jer
##tini
##nensis
580
##boy
##rano
##bas
casablanca
jeremy
veneto
rạ
ridge
massa
bennett
dằng
##nda
##kia
warsaw
goth
##79
pg
ming
##sm
##ctus
moran
henin
stern
navarre
385
chad
sikkim
pixar
##inum
thuôn
ốp
sấp
##ons
##lian
lorenzo
guillermo
đụn
cricket
ax
aj
##rana
nhen
sheikh
##iidae
kindb
##ope
mardin
hám
hebrew
quĩ
ashton
gur
era
##stadt
rudy
##sio
dwight
canadian
agribank
thebes
251
ngót
cinema
wellington
champagne
##para
wen
ingrid
hercules
zur
##sper
bẽ
1799
nhọ
kuro
fil
trìu
springs
yellow
beyoncé
quới
hylaeu
proc
sav
##gra
##ến
eli
crotalaria
nauchnyj
goldman
lie
đạ
driver
issn
##sf
##not
##niscus
frigate
saxifragaceae
rón
##rang
##cla
gừ
318
##fra
##rey
bear
chum
hur
hẫng
mohammad
observatory
pharaoh
bordeaux
mướt
marty
dec
dre
gerard
airy
format
dasy
286
racosperma
routledge
festuca
diếm
celine
ulmer
giô
micr
hideyoshi
politics
tobago
##gaon
ent
7855
esp
challenge
wai
331
đờm
ned
thierry
246
ptnt
##odi
zmir
sergio
335
hom
armor
brit
stella
sync
yes
verde
apo
heath
##ory
wyoming
avatar
kushiro
##sim
pele
##rama
mission
veron
watt
brisbane
smolensk
##ill
adobe
##cel
nomada
mõ
iu
pour
attack
region
bâng
davanagere
##lâz
bravo
##xin
767
falko
effect
past
##pol
zone
mú
##ở
qlvnch
sheeran
xắt
gaulle
##vina
liti
472
263
tarn
unicef
tesla
yorkshire
oil
amanda
##27
726
vát
710
wesley
lisbon
films
tuyê
fal
dụi
iwo
caledonia
réo
##iti
##ispa
quebec
campo
bập
elite
##ssen
klaus
##cra
sần
sel
##wald
490
serra
##ical
corse
bene
wings
ớ
adiantaceae
moo
archive
terra
##optera
abd
bermuda
fashion
raichur
nearctic
nẻ
ot
imperial
ariel
##tek
becc
eden
bir
yeltsin
triện
barrett
brooks
##ip
##ffer
##wara
##ulo
compact
giồng
wiley
judo
##yana
##pf
thau
lọng
##sser
##ej
polystich
##320
##light
kr
##led
cdma
nec
som
##rap
##ết
##rz
##aj
boulenger
buffalo
cuả
debut
photos
coria
##cott
##omorpha
rén
hớp
sậy
galium
bath
brent
eski
vôlê
thít
##ean
shadow
##thon
##75
##quet
##oo
indigofera
trabzon
##chelsea
##ẹ
dun
afp
brien
##pas
penny
dow
epic
kenshin
spreng
sophos
##mori
living
##rth
##ogen
nghè
wol
##ố
##83
casa
##shev
mindanao
preston
known
calabria
kira
wilton
lara
brest
exe
dutch
loi
##shire
buzz
##yon
sinop
##gua
diplazi
##uti
502
scirt
nhãi
reading
##bos
í
gaon
307
##tensis
huda
update
december
beirut
scythia
kỉnh
sig
##rad
##ono
camus
professional
checklist
pterophoridae
serb
##ilo
sor
alta
##mei
517
##hane
ble
nations
illustrated
##900
lổ
pisa
##rid
including
taxonomic
highbury
thơi
centro
phillip
##aire
##ario
##enia
vỉ
lênh
##nna
##tron
alliance
handbuch
picasso
glenea
orchidaceae
undp
##bridge
##lau
jar
lơn
317
281
bờm
##arum
glucose
australis
nấng
chường
##tea
chòng
##ddy
##ère
##igny
gaston
oligo
malay
hornet
sardinia
henman
gôn
shield
406
##for
mama
ailen
gaz
##isi
##mur
gali
##zawa
##rini
halloween
ôliu
vosges
yamamoto
##bei
bishop
local
chờn
bb
##als
nomi
cousini
##fc
gở
##emon
cultural
teng
rainbow
planning
đước
##moravský
salix
đếch
nachi
##water
##him
##ete
kung
glass
##ộ
ris
mcdonald
distribution
beatty
chột
oro
duyện
247
inf
##ines
##ệ
nol
veo
gorbachev
lorraine
zeppelin
sec
zing
marat
##llo
lambert
watts
lợ
said
july
cav
nhão
helsinki
lõng
geoffrey
sính
##sl
danf
##teri
sjc
hub
alma
siberi
large
##tou
##iết
##ace
##bl
bauer
metacritic
rhododendron
catalogue
shane
chiềng
asa
find
nhằng
##tten
##ochrysa
##ved
##esti
##oe
floyd
vogel
amiens
could
chét
paula
phia
springer
##witz
scudetto
trố
ichi
momo
suez
brooke
lốt
đọa
jeong
zan
##aka
boss
perdita
bulletin
aol
##species
manstein
schw
##bc
##anakkale
##80
hới
bha
kala
combat
##lou
maharashtra
teaser
belize
riga
vernonia
rb
##mera
rein
##rita
248
description
aziz
kop
tyson
##try
##iventris
allison
johnst
##aza
##iki
mainz
##rm
gièm
nobunaga
amaobi
trailer
bua
saga
##taro
##tsch
both
magnus
baron
##cula
voldemort
damascus
ferreira
escobar
##sat
antonius
pepper
formosa
##basis
cloud
try
evan
akh
##anthes
eiffel
##iel
vược
##zz
berger
image
vcb
sed
ứa
##khan
chapter
##oon
hold
buch
qk
hana
baroque
gibson
##dđt
lặt
241
##neri
lepidozi
khứu
##iu
pou
nippon
atro
321
268
đềm
martha
##ische
around
oliveira
kaneda
bảnh
dãn
jeanne
271
khuy
7903
fao
own
archi
ordu
celt
kama
waters
niken
rái
##ả
haas
truman
scha
singer
td
lươ
give
romeo
away
kenny
cory
soft
musa
##ský
thames
cool
survey
hotspur
sheffield
community
phalacridae
gáo
6000
moro
doha
cụp
giresun
metropolitan
818
##ogo
khiê
##poda
unit
##tepe
##avi
translation
##ock
tetragnatha
bellamy
cebu
dur
ducke
##orn
cỗi
granit
hansen
dawn
gl
macarthur
prague
##hwa
##rma
##36
bazơ
natalie
eye
kannada
##rst
russia
##eux
present
perth
gờ
##etia
àh
kri
butterflies
cabrera
dioscoreaceae
đằm
##ici
week
##stedt
ale
##anti
mền
##vu
##kova
326
anglo
sasha
boo
indica
chlor
affinis
kharkov
genova
1700
bolu
dra
niu
giắt
abbey
christie
truk
inu
fern
kul
##tom
toilet
##esta
athyri
##kul
gnu
hammond
##gomphus
##rell
##oideae
andersen
##lach
323
colle
liê
sca
thòng
saito
memphis
césar
##sdorf
mollusca
##ug
nhộng
##apura
sushi
##saka
kiel
dresden
january
rắm
planch
mack
hwa
rem
upper
ila
wanna
##themis
##gio
clyde
beethoven
ptolemy
besch
demi
##oba
##oph
##olepis
525
##rong
spi
sandwich
##ega
bos
##ize
##dell
rights
productions
gulf
cena
monster
ruth
scotia
philipp
##tive
retrieve
stand
audi
##char
##gur
prop
erzincan
timothy
clayton
nes
##endorf
345
lù
gogh
##tex
dich
sting
aster
côxchia
nứa
magiê
ðiển
##dc
##enahalli
bip
##mond
cop
limit
zombie
régimbart
soccer
thatcher
##wen
randy
##ave
nghiê
tomas
đb
##onne
giãy
ns
gear
dioscorea
sicily
source
steud
kick
amblystegi
isabella
301
holo
##yar
##ude
##book
##yoshi
##êt
kabul
teresa
##rel
##enne
pine
##df
gh
saka
276
##eana
burseraceae
mầy
milo
byte
webster
poli
comic
haven
fusco
##anthidium
nd
##gramma
diplo
gagnep
siemens
hâu
ib
assad
dụm
fritz
##obius
777
eminem
##hiko
area
##ỉ
close
senna
sedan
515
##omo
heaven
ochyra
delaware
geometridae
against
##rick
1793
##dina
##fs
##stro
##oco
glazer
hookeriacea
thỏm
bran
popov
##lang
##cp
##esh
theodor
phộng
ranieri
border
rệp
triêu
eduard
##details
##rra
##view
ov
##etto
gov
##yne
nhàu
flavi
nịt
rượi
shimizu
##unt
nuông
bloom
##yt
##lomariopsidaceae
thồ
rhode
ava
##iense
##vik
##ses
##stic
johansson
đên
hcđ
soán
khoả
another
670
##lig
##sie
sham
##issima
zin
##eiro
##any
##osis
eindhoven
ptinidae
uae
falls
constantine
338
đĩ
##ior
pers
blanco
##tyl
neutrino
##sche
##lap
truong
chavez
##pic
chaplin
ðố
resources
sever
christine
rufo
##ová
chác
víu
artist
walk
##lobium
##ark
##rik
giẻ
didier
dũ
meg
##nz
rug
jackie
conference
aux
##lae
como
gross
temple
túp
bour
##pos
identification
polynesia
nassau
seedorf
##sana
cyrto
hậm
ant
haplo
##ndo
ach
macintosh
hubble
xới
hampe
##gata
woody
1776
##kor
cornell
##mic
huê
spider
symantec
performance
nõn
đẫn
valladolid
paper
sui
##ứ
##lli
266
factor
405
frey
dordogne
histoire
lópez
mariah
##eilema
phung
##kes
ciidae
cut
sala
rinh
##tun
lucia
rc
dame
baros
##ssi
archer
catalonia
giòng
elliot
##aristolochiaceae
bac
##96
toạc
lôn
joey
##life
##ige
trê
cv
ahn
chấu
rưới
without
kuhn
anth
##pad
ground
##gl
sởi
malacca
##lm
debehogne
malatya
nakamura
##sman
py
##sten
rúp
aphia
##tinus
oriental
yoko
##òng
sem
province
beast
dans
##uca
##pac
gill
lori
feel
hari
##orchis
augusta
destiny
iaurif
wurdack
berberis
##nium
drew
##53
##xe
leng
296
forum
288
##udo
tal
atalanta
hogwarts
registry
lững
sou
glee
kerr
vigo
orc
artemisia
mành
##rf
##bou
##tner
liv
##oso
vampire
keyboard
hobbit
kerala
thóp
skype
osama
pon
severus
##asco
##lv
acro
unter
oreo
geba
hửng
##mut
##ain
ắng
##sma
##wang
vas
278
zip
lancaster
doubs
november
nic
oclc
streep
mccain
johannesburg
ski
chình
##trich
chapman
kle
robertson
mammal
##yna
saba
291
essien
crazy
aloe
##osi
anatolia
thailand
lag
korean
pope
##maculata
chiền
candy
tito
##uck
adana
via
680
joaquin
kesley
bấc
advanced
mersin
##dactylus
7915
bates
saud
chịt
332
ghim
660
##bay
matsu
##naga
386
nhép
knox
inzaghi
lamborghini
salamanca
shipbuilding
khẻ
##nard
ref
399
##ơng
thúng
chrys
rúc
khoắn
chội
hercegovina
ossetia
adsl
##ushi
##rde
earl
coral
##gol
1787
##02
raja
round
261
khuân
reich
muống
pizarro
pul
##ovic
milton
7919
nghêu
wien
##anna
##oth
bryant
very
empoli
ommati
##ía
ghề
winchester
platnick
région
theatre
champ
ryo
landry
##angensis
much
mani
267
277
return
mutu
##uto
trườn
chloro
dumbledore
ped
##lice
##tori
##alan
elo
president
organization
xèo
alicia
1791
chrome
poster
hos
##arsenal
lênin
hống
##yra
conrad
274
##tius
dìm
920
saxon
armadill
québec
catalog
##stre
334
##ilis
thom
##lê
##iza
##row
##tae
quệ
stream
930
giuly
phới
414
dunn
1794
hale
lotus
##kie
ket
rả
perfect
##hon
kunze
##rem
7847
##oku
mím
##opa
832
flower
cin
910
woods
lower
interactive
pycnogonida
pycnobase
carnegie
roewer
darren
any
macau
sab
rostov
path
scapa
##acantha
soon
##của
market
##ids
##nahalli
##gie
##but
đui
pittsburgh
support
paraná
##seerd
282
sporting
gard
pubescens
##int
evil
##hill
argent
lamb
pis
##ein
dolin
indre
##hin
##kun
kush
informatie
dặc
1786
##ost
vinden
modem
swan
akira
##had
##rius
##mc
hirtz
416
##ilia
##rella
concacaf
##mak
toshi
greek
##riya
393
618
valdes
xavier
##qi
devon
337
tsu
##ede
##ern
heinz
caporiacco
mauresmo
phylogeny
denver
holy
eyes
##thu
orientalis
##mai
phui
vito
phang
wade
##hp
youth
##chet
nagoya
ieee
mons
sphaero
328
##sun
tol
excel
haveri
##tour
##bang
direct
windsor
pei
fighting
xối
plata
##mac
auguste
jude
elmer
mư
jia
rapid
luftwaffe
lức
bửa
genoa
bịnh
pearl
##ủ
##tara
miết
making
##03
bak
cel
##57
##dha
maguire
ramanagara
santalaceae
orne
adiant
baptista
clav
aur
boz
##cro
indomalaya
linyphiidae
riềng
dor
images
joker
##ybra
mili
shot
huyễn
yin
services
pes
##mosa
kazan
olga
##day
lynn
##siding
nottingham
saturday
école
thẫn
helm
354
violon
abs
840
queens
lịm
darius
sally
##igo
psp
##sville
880
pleurothallis
##cam
client
zamora
quạnh
nike
##mba
trento
baku
levante
used
xh
strasbourg
králové
##lana
tiếm
cri
philips
##yaman
thớ
heter
352
read
ptero
cou
sep
schott
##giri
##bol
jeans
##mina
triê
nak
hutch
nacional
corydalis
vari
##aise
bazan
pub
these
##aud
394
##arn
martinez
##rate
##ét
elton
##chff
##bul
##emia
##ecký
bostrichidae
morales
taipei
halle
jensen
lati
planck
sak
##ẻ
283
##mmer
cannavaro
cb
ottawa
petrov
lét
trich
leigh
clement
nakai
cộm
pull
thuô
amber
nesta
salem
kil
humboldt
jenkins
##0000
antony
sonny
ðô
nauy
khò
úi
vichy
xẻng
bonnie
##idiaceae
keys
buffet
beng
bergkamp
schuster
knuth
mickey
isère
voyager
alo
maz
medina
##tam
perrier
pyrros
diaz
schefflera
honor
gút
##nne
duật
##ym
oe
##lip
2500
##soft
007
herb
robusta
hybosoridae
masdevallia
patricia
hóm
trade
lundell
baba
vent
367
mnet
tropical
tatar
##dh
nueva
donna
meliaceae
##fen
hoon
xư
clear
511
##isch
##toides
pratt
wah
goku
barton
lp
rouge
què
##ebe
dub
paz
clapton
gideon
goldblatt
scientific
transistor
bergamo
##lung
gore
##ree
bidar
loew
##phone
nas
kcn
marin
bikini
naples
sphaeromat
lucius
hòi
lợt
##hập
##fr
##cerus
log
lès
vè
##otes
coli
silesia
oxyopes
together
hermione
bayer
samar
##then
hexatom
ngò
marino
bent
##umi
##mart
adb
##slav
##uy
sassanid
bijapur
larsson
xúp
nhòa
siêng
pang
##vers
sưởng
bõ
ars
##eke
419
##scher
quít
trớn
##nami
##ego
##ect
##dler
pau
trotsky
voọc
arv
expo
##ath
##rge
329
burke
hatt
rothschild
enrique
phraya
##illus
##itis
kel
stefano
##eder
##tarsus
##pala
##eve
##qa
##thal
##adenia
claus
##sit
##dol
##rke
##trichum
xõa
##ophila
adel
memorial
gotham
fei
suông
##kam
ngoằn
##sty
##rba
pb
koppal
##rê
##glio
pilotrich
##gai
somme
##yong
kru
arms
rissoidae
smithsonian
wembley
something
katy
##44
ðảng
brook
mandela
##ữ
##95
sie
jer
##haus
ff
##hir
crisp
hươ
emmanuel
rainer
molecular
catalunya
ixora
##đt
complex
kos
lết
##vey
triana
tea
##een
iz
##tie
alexios
nexus
##evo
##lick
lòe
choán
##ần
347
##yeon
##mys
loanh
780
754
##kv
##taka
##nius
atlético
dmitry
mướp
shogun
forever
lupinus
##guchi
breeds
screen
wheeler
breed
##ashi
##ocalyx
thér
chỏ
ludovic
penguin
aspirin
thẩn
tanaka
##ako
selaginella
sinai
287
jacq
##iflorum
hến
hý
erythro
elip
fowler
hécta
sandra
herrera
ruby
355
scutellari
##pter
##ndi
##ologie
friedman
730
##eil
vietcombank
jaguar
cur
1782
mom
##ture
##uv
sắng
carte
##nick
marg
farm
inside
technologies
toulouse
liệm
interpol
allah
ancona
doping
every
298
##oux
brandon
cỡi
##endi
##mata
kwon
alpi
##ities
ngoai
borussia
sulawesi
cardiff
wyatt
joshua
guồng
##tit
being
tristan
dawson
osman
##liverpool
nộn
##97
oto
##plex
##stigma
nobu
hed
knock
ljungberg
sukhoi
tortricina
phịch
greatest
pietro
elbe
339
bết
##ocephalus
arch
##borg
electronics
##phyll
sunda
##né
##cast
aristotle
lleyton
osprey
baldwin
catwalk
policy
perkins
neb
vachal
##hof
diếp
faroe
##rion
mayer
mam
auf
nemo
blanc
##cana
eg
##take
fasciolariidae
marantaceae
proceedings
jutland
zanetti
lậy
ddr
spice
sapa
ivanov
rip
nolan
##obi
că
##cz
##hra
##sv
spilosoma
craib
nhẩy
nhđá
jeep
trachy
moe
555
adi
hích
gambia
bươ
293
cra
frei
shea
đkdt
spielberg
poirot
dominique
polytrichaceae
buddy
constantinus
elle
tracy
cyber
clu
kato
coniopterygidae
password
quở
byrrh
tomo
nigri
##master
nớt
gờm
fields
1400
astro
ctv
##gla
351
kars
##nel
##eae
##lene
gujarat
##gsater
flores
silent
schimp
huh
gomez
pter
##bee
##lô
sú
760
##cius
##andi
309
mauro
##dem
chúi
fury
830
outlook
kahraman
vriesea
##kei
sofa
##bis
uc
cosmopterigidae
lodovico
fabregas
lexington
##ophis
guerrero
rolfe
bungaria
hookeri
284
elsa
vince
schulz
gallas
kids
##assa
gum
sarkozy
trevor
##phr
##rino
calam
##uki
sergey
##anov
siri
nhặn
nghễ
nhựt
bụt
##hoff
yukos
aqua
origin
branch
burn
suite
tàm
cas
##mbo
gandalf
histories
bopyr
giậm
quin
384
things
pocket
1783
hartmann
cafu
##gli
troia
graz
##tico
##coma
milne
aikido
foreign
september
easy
wendy
770
##nikov
strong
spar
chimarr
tonga
tucker
##ốt
independent
polyme
fen
fk
lừ
cuneo
maj
bow
dim
lom
bum
haut
plymouth
wanderers
##ẳng
hybrid
aka
schr
kwh
514
kurz
peng
ig
pristi
##vil
thảng
agrypn
odessa
bradford
##ubi
netsky
rahman
camry
canal
##lich
343
lạn
elephant
beyond
sparrow
phốt
lil
##cn
hỉnh
butt
date
kimoto
##rosa
vót
##lob
macr
giũ
somali
##rab
waka
río
dani
dahl
lythraceae
makelele
myskina
steiermark
shiva
brody
aude
rotten
gồng
##cô
archives
tray
##form
ptsc
wwf
lorentz
atr
eng
##phil
##link
lieftinck
nũng
rodríguez
hilliard
aderus
##onic
##58
##mie
##elin
##born
##lk
401
292
muse
##iers
quơ
##punctata
vickers
becks
##limnophila
##sina
stereo
cata
script
zoo
léon
jtwc
ferrara
##rain
madhya
less
soc
##onyx
##urs
bấp
hammer
408
357
413
##rant
##oca
##yal
pir
##vic
afyonkarahisar
simplex
##gat
odonto
dau
##yen
tấy
mơn
cecil
fuller
289
cui
##ics
hus
sủi
hợt
asteraceae
##lands
##por
vega
486
##oga
##ực
chíp
domain
##74
050
rue
iq
##ates
371
february
mordella
rivera
such
gone
##lib
atlantiques
mandal
##ullah
halo
pike
##opterus
kla
##calamus
##mine
campanula
xxx
fisch
##dov
yasu
##rrh
pep
##ể
gibb
dusit
gerhard
plei
lars
kofi
bugatti
october
kobayashi
##84
warriors
alen
nám
coco
rub
trối
lé
##tei
##pra
button
##ovice
##ander
sikh
slade
amata
##ĩ
vernon
388
bourne
##tura
creative
makaay
konstantinos
383
hặc
xóc
camilla
mast
##oise
##eca
aristolochia
shen
ngốn
methyl
aube
##chuk
caribbe
latridiidae
suv
treviso
katsu
##ors
##trong
chùn
##mana
devil
##khi
cardiophoru
baptiste
##sam
left
bagalkot
dizionari
elisabeth
taraxacum
mills
##uber
##cata
##ente
##lica
communes
##enti
ruf
ida
387
##lev
##yp
##dé
bechyne
council
gattuso
heritage
rườm
jyp
##lani
bêu
##bie
##she
robson
similis
vie
gong
baja
##phys
oct
million
960
mòi
eritrea
ethernet
sãi
nải
475
funk
laurel
nhớn
freeman
##soma
orion
strike
crom
##fort
##đã
fukushima
wight
spec
leopard
radlk
##arium
value
verona
secure
pavia
##nova
rand
sugar
##tham
abdel
##kat
karatedo
senior
thịch
same
thảnh
##stoma
koro
##agrion
##lensis
peak
satan
universe
##tô
##dun
bremer
benn
sigma
ivie
duma
##ườm
aeroflot
helicopsych
chặp
phèo
nguời
##kra
nhoài
sasuke
bois
boom
maxi
##chenko
##otto
##ières
crown
faust
tess
##rone
crypt
lydia
1797
contemporary
bxh
ngẩm
nán
cornelis
ht
medicine
én
reeder
##iforme
marta
##rer
##bai
327
sad
612
ita
bruch
##ault
campaign
##osperma
regel
oahu
veronica
ley
prunus
xốt
##wei
##petala
##enbach
cyn
picture
basa
##dre
buccinidae
eniwetok
mahmoud
lúp
tyrannosaurus
harley
maura
##ebi
##imus
tă
shiro
##eaux
##đi
sims
kut
##lena
##ering
##une
pong
##nce
##uel
mantisp
thè
disk
lõa
oedemeridae
cuenca
##lier
neuro
anderlecht
ey
cle
meuse
##rington
orchideen
yonne
##hun
##elmis
hum
rw
740
##key
##odia
##oke
griffin
holocaust
honolulu
gaziantep
editor
keynes
lucky
voip
##oxy
heat
suba
prot
##roth
346
##aldo
achilefu
thõng
morawitz
philosophy
##uria
quô
##lur
shun
kohl
ròi
ck
##lca
lead
pam
bok
khơ
menzies
extreme
mithridates
tuabin
fernandez
##laphria
##tov
job
##bold
bowl
erythr
336
roe
cash
lester
##ế
lippi
##sac
616
##amine
##cella
342
pham
curie
xoe
elatostema
helichrysum
mccarthy
mttq
ieyasu
collagen
piô
telegraph
516
credit
cyclosoru
##vat
anders
bẽn
continental
##cci
518
orchidee
##agh
mbar
deb
##87
oo
366
##berry
sinclair
cromwell
chandler
starcraft
hau
industries
damien
manti
##lophonot
thướt
moths
holly
294
##illon
thừ
##tium
mangan
alexis
gamble
bucharest
constantinople
lithuania
burgos
tắp
##ando
402
lể
##plus
wolff
##put
lowell
giãi
##gens
boca
indi
suu
pleuro
riquelme
nakajima
tiberius
lympho
sarco
sếu
amino
tl
gmd
kwang
hoffmann
hap
##omma
##ians
str
##gaster
draco
##ischen
dấm
nuclear
restionaceae
szlach
building
##dri
418
##lá
##uge
koh
rib
##phy
##nata
frances
minogue
rabaul
daisy
vanessa
đêu
431
yorktown
viagra
loát
rad
421
barbula
kyi
##ement
newman
gonzález
lebanon
mirror
cirsium
shepard
marilyn
occidentalis
taiwan
dát
savage
anastasia
##saki
kano
##2000
##laena
veyron
rumsfeld
fayette
cũi
zurich
airport
richie
liếng
lỳ
##rine
twin
##anne
##ắc
buy
##oki
rig
xiang
##ith
##det
rv
dreams
##gard
namen
590
##jon
mề
futsal
vangiăng
pioneer
##osia
sword
##bbi
brain
lig
musashi
##kon
gảy
kre
1795
buri
##atta
soa
##zio
neptune
smackdown
waterloo
quẹt
granada
pant
tuốc
ranger
kingston
papers
##hagl
860
bosch
ponte
##lag
photoshop
nhuố
shearer
870
htx
pole
moure
7921
craven
medici
##bio
rpg
ioc
tryon
915
##alia
pig
lap
mussolini
physics
##ừ
olios
tak
given
tét
honey
vc
faith
##zzano
ttk
naomi
cốm
613
##tera
diane
ud
carpenter
dniepr
londt
cạy
499
ira
willem
door
rene
files
##đà
bhl
deux
##otti
aria
feed
501
##ess
bethlehem
juncaceae
japonica
rosen
ducanh
dới
##rax
spy
##rod
macbr
##ison
grim
##enstein
##ậm
available
himmler
michener
somerset
jeju
##lah
sumer
khứa
wanda
circle
##som
aw
phụt
tail
nen
cincinnati
leptodactylidae
trichomanes
fabaceae
409
donetsk
##aci
gul
miya
tchad
nissan
violet
ike
504
##tain
##ald
##91
pap
##sperma
goo
vạng
warncke
dynasty
dysdera
defense
chợp
##get
lởm
980
407
nephrodi
hak
422
ask
quick
##gé
##enza
533
##grad
##ọc
calymper
giụa
jupiter
panathinaikos
philodromus
panasonic
hepburn
rugby
pier
lủi
##max
##ỷ
mustang
##ipa
petra
espa
clan
519
conner
amasya
zarqawi
quincy
##owska
lỉnh
##luk
scipio
##otis
sụ
xml
grandis
henrik
##63
koko
quentin
jedi
population
##hira
rs
orient
financial
voronezh
coeliox
nikita
eduardo
7883
##bt
bafta
##teria
##west
##rinus
origins
isabel
user
##eco
linden
baehr
tex
##vit
alc
##ppen
##inodendron
liechtenstein
##nur
xuýt
ruồng
karab
tuỷ
##mpa
stay
tk
##sara
ligue
tudor
iwa
ricci
##old
nhuế
yukar
barr
##lander
francois
fabian
brunswick
rockefeller
rotterdam
impact
ngoắt
cologne
ptilodactylidae
sạm
pest
literature
enter
##ike
maiden
##ieu
##nut
##thia
hàu
636
##tat
piston
schwarzenegger
bhyt
hilary
nine
casting
xệ
##phila
##camp
##type
láy
crimean
deutschland
hits
barker
hasan
horus
háng
nev
jaya
lar
sandy
##isse
##odo
dacia
selaginell
dữu
mic
cornwall
academic
kayseri
amoniac
crouch
666
believe
stro
372
##iferum
##lita
mitch
lux
##carpus
axel
brun
ooo
##zaki
phys
nishi
yvelines
daewoo
nashville
thani
yard
bomb
aisne
gmt
615
ecnom
asper
curt
404
natal
cody
429
groeneveld
cocktail
inoue
silvanidae
luy
341
ele
zack
moh
nikolay
khuâng
##kur
##89
quinn
##orus
gilg
##không
canton
1080
nadia
##ều
471
matter
##ganj
alzheimer
gehrels
halifax
pterobry
garnier
ambly
ismail
rích
asti
##rag
##over
irene
##cola
hipper
##iens
xanth
drilli
doyle
scho
hayata
cause
muon
borhidi
denizli
guignot
simmons
episode
ascoli
flag
tậu
##sawa
##rix
7000
##kot
##dp
echo
##roc
acm
##sang
jill
pk
serm
##amin
559
raikkonen
qđndvn
##01
luxemburgo
lắt
##yd
miê
##itt
federal
gau
617
alien
##charlton
friend
##ình
weiss
##inensis
349
luâ
lẽn
ascalaph
eximbank
goethe
stigmella
countdown
psychomyiidae
solid
##rda
nicholson
thiu
lax
gonna
bihar
##tik
landes
##ista
wireless
random
johor
cạch
saladin
localis
403
pepsi
marche
beo
##oria
capo
virtual
trọi
##ulla
##rach
vasily
619
##cks
363
gomes
gé
phủi
shire
##luca
mydoom
westfalen
##mund
makoto
frông
laf
cresson
mendes
vại
##ggi
mueller
khỉnh
##maculatus
forlan
khalid
kiri
thought
dee
##bbe
##gne
liang
cisse
fla
must
bureau
625
tf
##ingen
carson
xl
rogue
##leri
satsuma
elias
grolle
bj
##ồ
hatay
wolfsburg
mina
braga
999
monk
heller
rep
desert
ksnd
longipes
dementieva
strabomantidae
teabing
mpeg
doo
núng
##phia
bri
dd
##mbi
schultz
saul
cún
avg
##kow
##eler
mf
##rida
##away
##yaz
xang
shar
đung
xạc
##ellata
trồ
frost
byelorussia
##lton
hole
##lop
vịn
##hbaz
ska
435
cic
##gara
rocca
guti
manning
##stri
frullania
zuckerberg
shannon
##ttingen
##cephalus
blogger
svđ
ik
##core
427
505
lìm
sic
marca
1785
##bir
goa
student
shoemaker
sánchez
zootaxa
fukuoka
gunn
scraptiidae
pereira
##isca
##enda
lindb
rana
duc
barnard
sé
qf
nhă
##ister
fate
pasha
##thes
mato
dominic
824
##graph
nicola
flanders
mathematics
adidas
judy
hịch
lycosa
vulcan
fitz
vùn
tuô
sidi
##sius
kita
mana
rf
ồm
geran
zor
vil
firenze
tomatoes
wilcox
elaeocarpu
congress
includes
090
##sul
787
rashid
348
girard
359
##poli
##340
till
thuy
mich
magna
stage
lucien
saigontourist
salzburg
kampong
##tone
sphaer
structure
ttck
aurora
kota
sia
letters
##opsyche
cheney
steroid
##hoe
##tang
##juventus
intermedia
pai
raoul
icon
clarence
passiflora
noble
reis
molina
hydropsych
pec
##rock
selena
verm
##ske
##bla
##rest
institut
whit
sino
##bak
##spa
1300
wish
table
##now
##101
##oto
angustifolia
lightning
đét
od
saturn
oeceti
giant
##rv
##mé
plato
ðài
nicky
monti
đênh
##ỏ
lehr
##kovi
##chat
##vent
auri
nk
friday
please
chipset
lib
rubus
weimar
##hc
##cit
afr
chev
lange
kyu
ful
lạo
eriocaulo
##yk
377
grosso
sign
fry
vale
myth
math
fou
ốt
##tung
verdc
ito
amar
##ná
saxifraga
kumiko
minamoto
focus
philippos
walking
judith
##yat
bowell
ngấy
##át
willy
avengers
##gm
zel
liz
##ress
irving
##ender
chae
mustafa
##nner
emirates
đuợc
fleming
wilkinson
##nii
ilex
##xo
ngoi
motion
better
vl
##rut
moment
stick
##roides
descriptions
kiếng
sẳn
punct
pall
fusc
leonid
##pensis
##lec
sakarya
##erman
ermisch
learning
springfield
nhoẻ
bright
##tler
valeton
kuznetsova
urê
##ann
##eros
##hana
môtô
thunder
wasp
428
1781
jocqué
##igi
rốc
ambrose
##fel
inga
pmid
##gul
pel
bartram
hão
455
##milan
romero
kot
analog
hủi
1768
handel
374
476
##77
oxytrop
dhabi
fear
##lya
##cot
kure
kệch
##ropogon
##neura
kao
##didae
shiki
urata
valeri
kaba
stru
##ych
potsdam
vincenzo
zonguldak
kawasaki
journey
quẫn
sendai
kimi
khựng
kok
##mul
392
##kim
##morpha
##ulatus
rydb
mile
727
##hom
##bella
925
pf
truth
dm
364
baht
exchange
ochnaceae
philosciidae
hiern
rần
##ampedus
wick
herm
lév
##lix
editions
##rca
makino
##ời
flat
điôxít
rize
##eki
##ial
mói
erigeron
soricomorpha
khxh
batista
##ction
prize
ritter
kuma
cum
##col
hac
neon
##naya
ngố
barra
##xt
saw
đớp
alfonso
sit
falkland
siu
376
tyra
581
##rh
##idum
tcp
burg
611
ctenus
iwata
##alli
row
##ẩu
dé
bĩu
amelia
##edi
##ving
##xen
vill
##cham
##ffi
suriname
trio
##lva
ruy
belgrade
paramount
424
abrams
mexicana
economics
fta
uttara
techno
miley
kgb
historia
pali
once
stem
##vus
madeleine
schwartz
cirolanidae
hogna
##gt
##gyna
meli
##schen
np
marius
##ptilia
##ener
##pie
##ường
990
nutt
##mantis
##kins
##bolton
jma
369
harv
##pun
marquez
caracas
##zai
crow
acalypha
##phytum
homer
moor
##hea
##nb
##thel
communications
acantho
polk
signal
illuminati
desv
##aye
andalusia
prain
ille
397
pallida
til
cube
palaeo
##wu
##idis
soda
beverly
catarina
scolari
panicum
gou
##tropis
brandt
dido
##icaulis
mog
##kos
##thea
gustave
##wy
shawn
trô
8000
sega
grimm
##iola
rôn
##aru
ưỡn
##vio
mok
##kowski
palo
geum
seed
##siana
leaf
353
garcinia
lophocole
ðơn
stories
presley
papilio
890
peterson
jubul
##ght
scheer
##masa
##ones
khè
kuni
cach
neill
kappa
emil
532
kilo
copt
erio
fda
euclid
nasdaq
vodka
wolves
cindy
1767
sup
poir
toét
##rek
##ống
konstantin
yasha
##enz
aneur
rúm
##isha
##idius
prey
poe
irish
zenit
##gil
experience
gressitt
rhythm
vaughan
hsiu
silene
vigor
##ht
##dara
loki
pearson
cub
hawker
peer
apa
salad
##ocera
herald
##mol
##ấn
##loma
##azzo
445
bil
gwen
ping
domestic
cerylonidae
sũng
nothing
ves
caliber
nãi
krause
##eme
##pit
khuây
maximus
##rium
hag
1780
thuram
chess
##ket
parris
alert
398
##vie
egypt
seal
##odendron
thúi
unidos
aug
avenue
aloud
blackwell
keep
philo
rota
##street
##aq
animals
##56
##shiro
981
##dda
##ual
ttxvn
hydrobios
seychelles
daegu
##erus
heroes
##kers
kazu
##gang
##enta
murcia
506
tnt
abbott
##down
lú
1784
344
##igan
reader
##bic
yg
sphagn
##essa
ngoèo
êkíp
ẻo
aeshnidae
estados
674
everest
models
bornm
mexican
##pd
personal
##holm
status
lact
indie
##dir
chronicle
nora
##clo
lock
guillaume
##nau
delphinium
rowling
huề
##media
690
ultimate
chạng
ard
author
##ester
ké
ưởng
hazel
ðộ
sulu
##nei
chik
##slna
collina
jess
gẫu
howell
##iran
##ult
##ahalli
mẫm
sénégal
##itus
kylie
perugia
hamburger
tren
mcc
modena
cộp
nậu
beer
##cb
##ography
lán
gri
452
522
##inella
sòm
ori
##tens
ath
##sher
dru
##roi
kuk
pavlov
##kki
hesse
bolívar
hurricane
barbados
javascript
pediciidae
##tilla
kitty
montella
##hiro
585
coll
iốt
ắc
ghita
##nio
##rav
italian
polyp
##cheon
anelka
ekaterina
miyazaki
ecology
ast
sip
factory
2050
merc
396
aniso
frame
đoá
vánh
##ptogaster
##ticum
self
xylo
sous
ceylon
comarca
hélène
hitachi
381
palais
vpf
daniels
##kou
ferr
lóa
bend
bara
acut
rha
##hurst
akb
715
##bh
yar
prima
##strum
614
##trix
##igne
flagstaff
marlborough
trinity
xoong
edison
smile
meo
meryl
brother
obere
buru
kub
mammals
##ged
##lz
tx
##psis
wald
claudius
monthly
426
muốt
sbd
aztec
nhúm
thiềm
lumia
nihon
romance
hind
389
889
pơ
##nberg
myrcia
##illes
reina
439
##alla
bactria
jade
shakira
diversity
utd
##dit
cir
frog
##tris
thcn
đỉa
##phos
##hisar
##ped
asahi
láu
conquer
691
##kaku
##sb
nịu
réunion
ngoạm
tonight
##dhi
phuket
gauss
psg
uhm
##ord
hertha
nái
milli
justine
tale
galli
portal
##barcelona
##78
size
vani
##88
##bé
nệ
rss
guadalajara
qúy
yakovlev
annual
dượt
sac
##eba
ago
chãi
trám
engels
hesper
mika
##sea
391
championships
philodendro
##thra
crum
458
423
shark
##iwa
cordia
##ocephala
thỉ
##iosa
##rup
wrestling
marốc
claudio
spartacus
attila
bellary
gổ
rợp
##ruk
pê
spartak
##during
gus
nộm
513
hoo
hearts
joyce
nhốn
xiao
##arc
chamarajanagar
discolomatidae
hên
rusby
xẹp
hwan
ue
stanton
##zce
wet
geisha
bợm
stones
róc
##xd
##anica
##ất
725
hera
nưa
malik
panda
eh
##ortula
kuru
sava
oran
everything
emperor
funariaceae
pagan
twice
justice
person
vis
chiba
yeni
patton
while
##polis
444
##cine
##mae
lives
shb
norodom
cunningham
ryukyu
talbot
geranium
trichoniscidae
regional
vogue
nephrotom
phàng
meteor
pien
samba
##lers
rot
##anth
cour
adult
role
geun
sb
##nny
##dur
plate
kind
agamidae
bratislava
undertaker
ribosome
andorra
eight
##dula
chopin
##gyn
##sé
684
reef
##llen
940
abi
paradise
1763
isabelle
pauly
gli
##ặm
gonio
##ryu
1777
438
##uya
juliet
##ating
jennings
niigata
chemical
tccn
pip
capri
dioxit
sirius
016
rờn
xd
tenuis
##pot
##amo
##press
790
ura
##gd
deal
pena
##ridae
mùn
##mail
klotzsch
rajasthan
lavigne
audrey
cobain
puyol
plutoni
##chal
grat
greenwood
oval
hớ
##lade
nesom
welsh
section
ave
bog
##point
drag
flex
radi
una
sti
maas
##ềnh
##bea
aung
##schi
aim
hiddink
oppenheimer
patterson
yusuf
yvette
admiral
heteropoda
hippo
sượt
crass
albion
##rani
nhổn
schl
arabia
##ded
chởm
nori
schweinf
kangaroo
wildlife
##mate
blackberry
##esco
alves
##raz
##rá
hụi
dyer
529
dory
banner
stol
##hit
erem
hampton
hayes
##lineata
thorn
kemp
grass
shia
hoă
##oza
knot
going
forrest
373
reeves
contact
magnolia
ubuntu
ardennes
verdun
lẩy
elongata
##lav
drop
382
sonata
##band
garin
##hall
##hari
koran
##vier
zeno
##game
##tio
##hler
turing
product
worth
##lem
davalliacea
pardubick
tupolev
vhtt
stephan
cherry
rest
fried
negan
##late
tama
##cops
composite
##olin
takeda
zar
##duc
dro
933
##ally
lipo
cern
eta
slim
##ques
magn
kumar
sevastopol
tmarus
davao
surrey
sheep
bitlis
gestro
##ène
coloma
##fal
húp
##ugo
##mangala
rubin
kishii
típ
485
monta
##ija
seti
lazar
kl
electro
##ité
simone
wer
brugge
##oj
riyadh
verhoeff
myo
laemophloeidae
wifi
trip
xẩm
berber
bacon
##virus
sù
bromley
##istan
phyllon
swa
##rnberg
##shanensis
lynda
##cta
##ango
muller
trin
lepido
ngừi
##use
scytodes
vendée
joão
sarthe
middleton
##zil
##zha
solar
##onis
##mme
##ril
wilde
chinensis
##uan
509
##anto
amb
##dine
368
##ngo
côdét
fitzgerald
tiffany
macquart
porcellionidae
vinashin
711
lonely
oblast
keller
##tsuka
shaun
collete
465
wor
fide
379
##yensis
clem
##leb
boer
gơ
##dil
extremadura
grumman
salgado
zambrotta
classification
sidney
canyon
luigi
##dig
inn
marsh
marcello
##ots
##lund
ellie
lejeunea
dea
362
poecil
withe
##gren
jag
##sou
##vre
eco
##trop
##hani
voor
canterbury
shinsengumi
salerno
hự
trop
father
draba
1759
##loba
##ification
aven
lagos
howe
zhou
##podium
brod
siam
##rand
dil
##inen
sonia
batt
acuminata
camoranesi
cyprinidae
prairie
truân
##ares
##ryn
ngụt
##ological
##ỡ
##tiana
portman
thuâ
##68
woodson
levels
##ondo
##mah
632
highland
bela
summerh
ngùn
mikhael
schltdl
belfast
various
wes
##há
hinton
adriatic
stade
##rense
##xit
##sec
679
dien
tươm
manus
institution
528
##odonta
limb
cữ
##aku
taira
##anthophora
##hart
silvestre
ui
saviola
westwood
ferrero
##ularis
##sdale
myri
adventure
##ebel
alam
##sheim
stor
rhino
##rophes
jac
##azi
##pul
448
đhqg
antigonos
nượp
jericho
shima
##ging
##nari
434
using
##tôi
##iculata
eos
##imov
ride
ishi
493
walsh
##elles
buk
fiat
orton
##olus
och
holm
##380
bitcoin
chụm
mcvaugh
optimus
hydroxit
albany
alessandria
ngấu
sammy
flint
melo
ships
adeno
vandal
##ấy
haag
săm
zara
621
##tton
mendel
sis
##ulatum
bruxelles
914
lk
hawking
dề
merkel
lobelia
vargas
thược
baccharis
ich
khalip
wait
1774
mortal
leske
michele
##khov
##eff
austria
1760
seg
poll
##pil
artemis
hormon
##tile
447
##meria
beg
desc
hud
gap
##ggio
kitt
##shaw
##lek
tahiti
luiz
macromitri
rt
##andro
ict
isp
##kb
còm
kohler
webcam
719
##kho
uro
##nning
##fur
roads
cosmarium
ammophila
##gues
always
chạnh
gould
mômen
bathy
sonic
##bell
critical
816
course
##mena
ipv
nhk
midland
orchestra
bđ
chance
488
523
bark
blechn
freddie
manfred
plectranth
ríu
xược
hục
dressler
tata
##98
trias
rhodo
##đô
##tx
url
dio
##tian
ws
##comb
orth
##porus
##hee
nhổm
netanyahu
typhoon
buchanan
almeida
nickname
hahn
jas
tiển
##loch
##kata
##stel
##ẽ
vờn
436
##hs
fel
xị
##ely
tuồn
behavior
shinawatra
terebridae
mauricio
durham
desmond
entry
mẩy
##jun
##emo
##yun
gymno
##ort
##song
quằn
479
plum
462
##59
antwerp
aquino
iskandar
puerta
ioannes
eragrostis
khalifa
rover
tuẫn
##óc
đùn
##nton
454
dặng
##tman
##nax
sher
lombard
sf
avon
benson
##sik
active
different
herzegovina
paepalanthus
buckingham
flynn
aquifoliaceae
ronnie
gtcc
toure
oakland
##folia
antioch
jacobs
uta
sình
lun
networks
kand
steam
compton
kiyo
chikka
815
##mannii
##oti
caspi
gw
nymph
michelangelo
rzhev
halsey
##pina
##lastrea
achilles
##ades
##chlor
holdings
##ungen
##iter
dửng
mariano
nos
##ác
bolt
##este
##igu
tạnh
nigra
808
970
clair
lasio
lago
##assi
446
##uco
along
mátxcơva
chelonari
bertrand
chẹn
broadcasting
geoff
ekman
scottish
sale
##sur
williamson
##fran
director
luciano
913
silicat
rươ
stipa
gallon
sonar
hẹ
gentian
575
advance
vnđ
assassin
khrushchev
nalbandian
##young
yersin
oecd
rận
##tsuki
##imo
nhđa
gí
gạ
cerc
xạo
##nza
433
##gana
vasili
yao
title
pippi
##our
rosenst
##phis
##pei
kerch
dora
##sone
schwe
gaius
cello
phờ
##kovsky
sey
hend
melandryidae
vđqg
islamabad
albrecht
broad
##cissus
mathematical
dudley
sphagnum
dome
##toni
##hradeck
doom
##tsa
monolep
rating
sến
urs
fiore
tul
875
##stemon
ricky
##law
thoá
##ants
wimm
lines
tunceli
nairobi
ðiện
turcz
brittany
cryptophagidae
humilis
pitcairnia
##ized
##gri
lepidoptera
fus
bernhard
dum
giũa
amor
##ils
##uth
kuril
rhe
##db
mans
ner
lute
##hrer
witt
isis
vila
iniesta
saxophone
lopatin
xuâ
thrace
demetrios
rca
bấu
##uer
##ơi
olive
ngấn
budde
##buk
##ttle
sước
##76
##awa
##fit
527
russ
kab
495
ses
hyuk
viva
mick
##ilus
bora
window
nia
##valencia
tales
ochs
aleut
##styla
labrador
jai
heights
khăm
cở
oku
##pazar
##anthum
pilot
event
hoplit
saussurea
dz
534
thunb
##lman
##kis
##censis
565
cran
damon
tate
coleman
##arch
hezbollah
sleumer
gifford
##gni
604
santana
nốc
fairy
elf
##vt
##icula
cage
schu
sinensis
wag
707
kramer
marek
496
benton
burns
ins
monde
##eren
anion
auschwitz
amenhotep
gleason
chamberlain
##nter
fallujah
cocaine
##panax
concept
##uku
##bry
##list
megalo
##rito
viêc
##kirchen
##ochloa
451
because
egg
govaerts
musharraf
numancia
theater
##một
cowan
##vari
pác
cườm
cream
càu
domingo
victory
1796
pohl
octo
442
1762
hùa
bernie
altai
bennet
##pert
##cking
##ulifera
fulltext
quẩy
đoài
blanche
1100
associates
cab
leiden
harp
peso
503
##eris
castillo
##til
##schema
##pop
441
pure
##tala
private
harbor
mako
malac
378
##ssin
##unda
helguera
michonne
rollins
##endra
vấy
esther
bieber
##ỹ
ktx
depp
kud
novak
solari
alle
##ulosum
##ake
##syche
divers
##osh
##vara
bale
##sund
movies
nhông
perl
gàu
barbarossa
polytechnic
prescott
hittite
whisky
##orycter
maui
453
##ớ
##cco
meri
1771
tectaria
##ró
bryansk
boyd
lob
khoải
mura
##jack
mano
##ations
magie
1778
loir
##play
theaceae
martina
trờ
##úfa
calédonie
kutuzov
medieval
minneapolis
orléans
seymour
veracruz
đbqh
beograd
grevillea
olympique
osiris
quắt
rochester
brighton
##color
##comp
python
labs
##ostoma
scabr
##ocarp
##tomo
##út
##aston
535
##nf
nau
levy
##hard
hira
tada
promach
##iflorus
##dei
sym
challenger
494
pyro
wie
chul
##ovka
quinque
##rima
sus
811
##sada
descartes
spanish
randall
medical
rmit
among
lợm
falc
sama
juss
regina
549
##nka
##saku
##ulu
##zac
##ever
##lep
acre
pauci
disa
corner
##lingen
##mari
shinichi
myrmarachne
sasebo
faisal
marginellidae
silvio
##stat
oy
##vittata
essays
bec
yoshida
feng
aimar
bono
romano
358
##ryum
507
##bari
##pentaphylacaceae
cronquist
insignis
sussex
vanuatu
industry
rosenborg
oswald
plastic
grandiflora
sorry
##mala
##ơn
##ddi
irina
chiện
##apur
hubert
##bau
rho
arbor
605
##ified
##ingham
toki
sít
##dm
capparaceae
xylocopa
morocco
plug
xoảng
##cae
samantha
erwin
##240
minaj
rám
lotte
##sion
gondor
moreno
hamid
scop
812
hare
pinus
valentin
##reus
##mble
##poly
##rre
minut
##mf
##idens
bbt
##sd
spot
##tottenham
gis
##sted
cinnamomum
fernández
invincible
motschulsky
vinamilk
stankovic
hoover
##eye
cantal
757
##care
clar
bệt
437
##imon
browning
##asso
##nate
##woo
yêm
##skoye
fontaine
philippin
##kr
hume
##rce
atta
##rden
##được
córdoba
hidalgo
thracia
swaziland
krasnodar
melanie
rục
##you
oss
loren
##nico
##nke
##everton
slow
shim
eth
##vé
##rath
toé
##iyah
upon
rie
##enna
##rika
hyo
levant
mand
##lal
nut
rhy
bủa
khodorkovsky
olympus
scharnhorst
schroeder
symbian
zanzibar
dracula
carpath
nhiếc
hz
tou
##tac
rạo
##ridge
mếu
oder
gilles
##ppi
capensis
713
##calyx
##stin
provide
savo
##rvi
nsa
cable
koz
emile
publication
guan
jiang
##ardo
bernardo
yon
##ophilus
agri
corps
##rya
tomorrow
vựa
justicia
toscana
laurence
myers
sales
nel
mollis
angels
saya
erichson
kanji
pale
brevis
hernan
##tria
jou
tera
552
##rez
##lima
mitsu
rôm
clematis
frederic
##its
alsophila
nhnn
##tric
arcade
##bles
##zone
hopper
##wn
##nice
basi
michi
acc
drepan
##ffin
##iner
goi
##rib
hm
##rul
vols
kuban
pick
##haru
barbar
##ệu
chiu
nhac
545
sag
##xx
yaz
bufo
yvonne
jamal
##ophorus
jessie
marvin
margin
##mpo
fight
nhăm
misa
moya
cứa
pent
rit
glo
##tb
mạp
478
##dang
##lett
swing
sindh
##otte
operation
maculata
##agan
##cincta
##49
petrolimex
underground
jerome
hawkins
raffles
string
moody
098
sakhalin
reno
##linger
##bird
##cd
globe
##alus
tct
##rsa
jens
##tions
barber
roxb
fro
seki
sibu
kaya
bauhinia
gerstaecker
olomoucký
puebla
theodosius
legacy
wakayama
##ame
hariri
arenaria
pedicularis
karachi
##gau
##wr
##xis
##ned
phoenicia
imp
vermont
sas
karst
mrs
##iloba
##lad
##nou
fig
712
vocal
##tay
##nja
salmon
humbert
##pora
romagna
muang
chamae
##mag
task
##sampdoria
fle
maki
excerpt
mcnaught
svetlana
taxonomy
heavyweight
tưởi
register
toulon
brno
##nex
lor
bk
##agrostis
pvc
chief
omo
##iq
675
schoen
##rka
parsons
tablet
##usta
carragher
guardiola
kaufman
lannister
angielic
micronesia
velvet
crosby
giuộc
hongkong
##gami
##cop
##fasciatus
sylvia
yamada
forst
christoph
##vert
##ện
##ologist
##04
agu
andersson
fx
davy
##ador
rờ
larsen
##tran
dể
##ions
guru
renaissance
dnnn
lleida
raphael
kontum
muồi
thea
##ratus
benny
##loph
912
##uang
daltoni
ethanol
##abat
sulfat
##chilus
mada
quest
##lino
snape
agnes
goldberg
gerd
gàn
luz
##gir
yamaha
problem
zam
trent
martini
longifolia
##bile
borgo
biêt
chap
##nicus
fact
coldplay
hĩnh
jasper
trentino
heu
mate
##alensis
alger
##plan
##rhiza
ramon
nud
environmental
821
##bah
berland
##nah
ptv
edith
##aensis
##kko
##mini
##epi
quâ
pectin
##reg
##ende
##lini
##oneura
stachys
corall
sôcôla
hispania
debbie
alaves
luffy
lit
wedd
bowling
ams
coss
ttvn
notebook
nịch
roc
##nina
ooh
599
brief
isle
sami
connect
germar
att
557
bron
maeda
rotor
toy
##ognathus
crane
dat
##ook
##has
scn
mitra
bỡ
clari
marattiaceae
purple
phũ
ramsey
zhao
fiction
cheilanth
raptor
##vr
phishing
lindsae
safe
quại
##dani
inox
lime
abba
amoni
hachi
plagi
kry
dover
palma
print
##dica
481
aver
##gis
ide
pé
noto
031
##rico
faber
##udinese
barbie
eine
466
saunders
lindau
corleone
luẩn
bullock
lgbt
##acanthus
karaman
##eru
douglass
payne
##uh
gobi
nả
arctic
walther
010
gibbs
##oglossum
dag
bard
##oly
tawan
##gny
dod
khă
arthro
##clava
##villa
1770
moth
hokkaido
487
##zuki
##jak
##bing
##abi
psilo
ávila
pouteria
insularis
bwv
##geri
tomasson
push
622
jal
alf
gha
als
giles
cdc
bitter
579
jaw
odin
vander
ecto
822
rohan
amun
jazeera
sardegna
mehmed
cassini
rubella
sint
524
contactus
obtus
guild
hirt
##gari
##fun
##rti
hanna
##quel
##bora
brade
milk
##call
ngổ
457
espiritu
bgk
trouble
tiberium
burret
vuột
rehder
##illard
epicau
safari
miễu
duẫn
genji
called
hof
##dian
pres
obscur
##istic
##cara
extra
train
##nte
emilio
lech
pù
mela
strange
hv
601
##strom
##bid
491
508
##enus
mariuyt
bhxh
bougainville
costellariidae
staurastrum
satellite
counties
pocock
kalinin
blind
tap
markov
##bard
octavian
oà
##dytes
latifolia
kaszab
đờn
khac
working
##elater
##àn
strig
laurie
varde
toe
religion
commission
rojas
andrade
rosie
meet
huơ
##vs
nba
##tim
##toria
sounds
nav
peck
sakai
nah
pere
##fon
nazi
##icauda
ist
##rgi
##inii
716
rd
held
##bong
hbo
001
korn
atom
thía
dorothy
khiễng
related
kombat
darcy
##ove
portable
byrne
police
ngậy
packard
sober
##oud
gentiana
##md
nhom
kau
bona
vita
neal
sabre
dk
kodak
dol
viz
grau
##gos
vaccin
lies
contra
722
##bow
##wing
anis
oestrogen
technical
coonab
parviflora
sinatra
dái
jakob
paspal
phỉnh
cassette
ill
fenerbahce
bakh
phon
tèo
vitt
ying
nitro
##ffa
imax
tours
dolly
titus
##iso
environment
tver
awa
nục
uô
amazing
cordoba
freiburg
greenwich
antiochos
atlantis
cadiz
##lling
coming
813
##sao
##85
483
pci
ret
##soni
salam
##onii
chớm
##dana
##scar
##erz
belo
georgi
cari
dino
arte
aegi
##đồng
mem
tenui
khon
crambidae
havilland
wikileaks
hérault
kadokawa
étienne
shakhtar
bittorrent
digimon
pamela
artvin
kidman
bergman
brasiliensis
norris
##than
gee
mĩm
##tđ
saif
clean
panel
hindi
##wl
count
squam
577
spir
##vid
nơm
berk
##app
sik
concorde
##cak
##ghe
rodr
##dot
cabo
hứ
score
##inervis
##rep
quăn
##gena
aventador
thwaites
padova
814
##ulin
hóng
mimi
goes
cris
825
nubia
period
##lí
share
bỡn
router
midlands
477
nguyê
##thro
lud
sột
prim
474
##madagascariensis
##rif
hora
##uche
sanders
koi
##ters
asura
sheet
lindsaea
##gensis
##sby
##esen
##arabra
fay
gđ
industrial
ocotea
platycnemididae
suharto
cornelius
montoya
junkers
bagle
##uw
havana
herr
metallica
lất
movement
davids
luga
lis
method
ela
tráp
461
karel
sauron
##fil
##lida
rufi
##dog
vaio
##matic
##tok
##uke
##fire
mean
grammiti
##itta
deca
agriculture
blizzard
ciudad
murdoch
olympiakos
##lơ
primula
euphorbiaceae
623
trees
olimpico
bặc
ươi
##16906
antonov
forces
paradox
davidson
brave
catania
permi
##brus
nạng
hirsuta
within
geschichte
##lb
##ecki
inches
ges
##fla
##loo
cura
639
baptist
stoke
helmut
trogossitidae
oái
squadron
abkhazia
alejandro
puget
nhắt
monticola
##omus
bien
quệt
freud
##lun
##inski
each
pico
tiago
notre
##120
##lid
cerat
vlad
schist
##mbu
##hk
##arensis
##gre
##nom
pulitzer
ngái
casimir
transport
warwick
548
vilaine
##rent
kitami
##mans
viêt
cavalli
mossad
##punctatus
goran
##tern
##nol
plc
##evsky
akbar
sql
##wai
##sbury
languages
pavett
##anni
eria
abaúj
chernobyl
makassar
megaloptera
vexill
díaz
liparis
higgins
playboy
adige
pedersen
bata
##gou
##skie
cheilo
ngăm
##notata
##osticta
graph
##ivo
granite
mayo
iwats
567
595
##rsi
warb
heather
##arctia
bộp
498
cambiasso
guillaumin
rứa
yanukovich
tevez
hsu
kafka
lhasa
arsen
pun
##mber
sche
thổn
tub
##may
scot
907
fest
loud
nino
ngung
##enes
lili
angulo
aeg
554
neumann
hague
456
775
##ặc
thoai
sida
baha
cartoon
##oxit
khạc
##bad
cerro
américa
behind
cumberland
suffolk
weasley
polygala
rodrigo
abstract
gareth
##steg
##gđt
nitric
alexei
hartley
##rdi
##tari
prof
kura
jp
boul
##cq
##uddin
##tore
##ndorf
helin
##sari
tuâ
626
##newcastle
ahmadinejad
nyctemera
poseidon
seydlitz
tẹo
ortiz
##eung
ranunculus
gry
scout
kannad
##sic
quo
##palli
##ento
699
goodman
cannon
##hay
921
ati
spil
zala
562
##ères
sđ
##wig
haru
even
##mensis
##ass
526
jul
cryptocary
628
produce
##enii
bibliography
borsod
glory
friuli
rắp
protocol
##aid
dancing
nhât
##olepta
lasi
sclero
tenu
burma
ee
heinze
indira
566
##oshi
kịt
##zier
vandel
myr
635
stephanie
brill
gamer
##tze
##wee
##esa
civic
demon
##pong
755
groot
dharwad
practice
sèvres
tbilisi
edición
dexter
briggs
##ếu
tekir
sitcom
maire
##ũ
gdi
pallid
tik
glabra
wee
443
##ussa
merry
cpi
đễ
antôn
liguria
rupee
martín
tet
##zzi
roo
ptilodactyl
alla
move
735
449
541
lew
##siphon
mần
##spermum
lucio
biz
glyc
mx
hayashi
asem
##adys
lesne
tron
##raw
dens
##glottis
katniss
sheridan
dinamo
sunfat
ulrich
kauai
nvidia
724
wadi
##pher
##inga
domino
dayton
##ible
627
should
paro
erin
frontier
##leg
zer
cambri
banda
anten
eure
##nee
hour
nhú
##uji
492
borg
muông
gina
remote
spinosa
##ulosus
toby
##idin
eileen
zemplén
brotherhood
##iff
bocák
multimedia
admiralty
cancellariidae
ascii
satoshi
##euil
cardio
pusilla
827
##bba
vall
543
tei
938
##phal
968
gyeong
826
dìa
rebel
882
direction
donau
##nl
##yle
mangora
klinsmann
milosevic
xyanua
tephrosia
kurosawa
stadium
##ỗ
acetyl
kirby
nữu
468
935
scale
##yad
oát
828
chandra
chatham
##flex
nea
africana
acrocer
florua
##mil
ivy
##tulus
##web
ili
cana
##nster
##manni
firm
##sler
aichi
fili
fermi
571
gùi
##tsy
alphonse
instagram
saviors
rhabdo
civilization
553
lọn
##dillo
572
##hama
díu
##anthemum
xf
sulfua
##cki
##esse
constance
##tla
đảnh
lèn
##hand
536
768
##orensis
##achi
##spe
##lii
##vol
bts
angust
qi
##shot
##wall
##ié
##81
haku
natasha
aerospace
jewish
aurelius
benoist
porsche
vijaya
baxter
nièvre
giầu
agapet
swiss
exeter
turbinidae
sgk
crassus
##nders
rud
jaime
##code
##cil
melissa
gpl
booth
##stes
travers
xép
bah
469
##tano
##rien
cerv
##lba
xém
##fjord
kras
bêtông
sigismund
wrestlemania
molotov
##yuki
##caria
zander
##jang
rule
doris
##liv
roque
endo
##face
trịch
##simus
##iculatus
recent
##skin
lepid
##ospermum
dă
##nath
castell
trend
##seong
##enfeld
##guin
wad
qg
705
718
punic
pré
intelligence
mcdonnell
trochidae
ttgdck
fishbase
agency
juncus
gamespot
nep
larvae
tomentosa
482
duck
##omy
sz
pounder
heian
đườ
bourg
ruben
indra
##stock
langley
shih
nim
committee
independence
mcclellan
dangerous
physical
hotmail
tulagi
vietnamese
xyris
nơtron
##ative
##rada
##ật
nucleotide
olsen
##oper
baek
##ichthys
jing
##zana
pallas
chambers
letter
624
yap
germ
báp
cùn
##nant
bìu
##phin
dane
##berger
lessert
##người
hubb
pata
##cid
oleg
idecaf
kwajalein
montréal
photocopy
spitfire
toyotomi
nicobar
running
núc
##rua
582
message
kaga
##unga
retro
##otus
##sternus
holub
##ích
##ties
cuban
legion
##niger
##ists
cim
bab
ere
maxon
acropor
nilon
omni
santi
cato
##001
carmel
articles
##force
sleep
bacolod
coulson
beaufort
pompey
female
ichigo
dẫy
dactyl
lens
luque
sedum
usher
##hid
cayman
544
##avia
superman
##tics
##lein
bald
salomon
rox
##xy
documents
links
lói
##ersdorf
##ime
##rta
bentham
lina
hedw
fab
moravsk
feynman
glochidion
remember
tolstoy
tribune
cynthia
hyde
551
liệp
cen
##riz
ens
sutton
xoè
damian
rhynchospor
kip
greater
icc
817
amer
##table
##hou
##rok
##hed
##kum
1779
mdis
##ube
nhố
viridis
gneisenau
lecythidaceae
revenge
epling
pccc
habitat
biological
##lom
beaver
bios
parc
631
ayala
##330
##zei
hermes
##rec
##izo
marcelo
cora
sharif
##yeong
fw
##ores
pluto
##ione
##arat
##ijn
rosenberg
##works
##cium
##ipe
##linia
medio
lamp
member
tournament
wollaston
wunderlich
alsace
sunshine
málaga
rabin
garros
suwon
rudd
1740
##ogaster
glu
##nil
##aceum
sằng
liam
genetic
cteno
schinz
##rau
ridley
##reau
1773
cyr
##ege
645
##llis
dns
gloss
lte
668
##hải
mandala
silk
##ckle
theft
##oche
##onensis
lokomotiv
rapunzel
waterhouse
genesis
##ocerus
palawan
konrad
lama
##wd
##scha
##ít
##sht
##dore
##combe
cé
##thus
samara
pict
##gnano
serge
080
##xim
667
vd
##asu
counter
##yurt
flava
toku
savi
##carpum
nei
ðế
gris
cheiracanthium
hemingway
loảng
speciosa
yamaguchi
đận
northrop
yunnanensis
surface
eurovision
thứu
xoàng
kale
huber
rising
lights
strict
##udin
##bourg
nylon
carp
##etsu
skin
##rig
##tê
##85177
##sci
hoen
xổm
amen
##weiler
##eron
858
leach
wilbur
##sport
##ấ
tann
chevrolet
evidence
brabant
randolph
symphony
cheumatop
lanceolata
ladies
martínez
jerzy
bye
eastwood
ngưởng
arr
##base
hypti
sadr
##rud
delphi
##kus
terme
##brook
##gala
##anza
ferrer
542
##this
1750
##kol
gilberto
lải
##ằng
##66
##inho
##spira
param
556
020
idc
##loides
yury
agard
kame
647
467
##donia
lepthyphantes
swanborough
##deportivo
epstein
ballapur
##ăm
ivanovich
osmia
aspid
##lith
thoăn
linkin
##aster
boone
vr
ringo
##cephala
##abe
hue
##ejo
##oproctus
##issi
margarita
##tique
parvi
##367
887
923
##noides
rm
##ní
obscura
edit
##idea
##sala
##yma
vir
dả
##lette
decade
##pti
desmodium
frédéric
kagome
sapporo
villeneuve
liège
munnops
##omorphus
pushkin
xibia
phé
several
##izer
reb
mồn
flowers
##ssia
##rev
##imex
##user
nitida
sources
crassi
##otta
##doc
ester
nghịu
devi
801
tutu
##ậ
peninsula
gloucester
hikaru
prentice
fujitsu
yasser
romney
construction
chapelle
christophe
machimu
manual
paulus
nomura
dock
##ochromis
helio
takeo
##ptus
lới
zola
merton
##trichaceae
##rgy
macul
seok
##kom
siem
úst
minuta
gư
##arin
##yuk
##ellum
##phor
netscape
sphecod
discolor
magdalena
carlsen
##jen
brig
karak
bommel
##lata
cerato
ngòm
agent
gustavo
497
paran
sàm
mongol
##stachya
##rni
munro
duo
thộn
brick
652
##ambo
ota
##rona
speech
gạn
maker
463
nirvana
suarez
vilnius
quắp
phừng
vaccinium
rịch
bergen
hilbert
muc
lenovo
##mad
riva
cyclosa
cate
##bula
grad
triton
vers
súy
ster
##vision
foss
##craft
parts
##guer
coen
##idion
##mora
platon
clare
459
croix
shelby
crôm
andriy
macrophylla
##lane
602
thymus
##ăn
dolicho
##ularia
chuâ
xuể
barrow
dalton
reggio
mcg
erd
##ignano
moc
asha
##âu
##350
vader
mahal
##zie
##67
giulia
##agere
apr
##ttel
háu
alfredo
mgm
jansen
##ppy
stack
neri
##zé
##ów
chakra
##sas
##iac
823
hydrobiidae
laboratory
mcmahon
ormerod
gottsche
ngòai
dianthus
pênh
gemini
bess
sunny
came
nun
becky
penicillin
##theca
phyll
sli
##dik
##zzo
##obe
917
##ochilus
takashi
matteo
novi
eup
glob
vit
##tet
##zor
919
1757
boh
##nella
minima
gleicheni
##cinus
lv
locke
##lava
cob
algiers
mackenzie
malfoy
palicoure
gettysburg
guderian
hingis
fadette
##ormosia
hsbc
##dora
reza
##chari
dorcadion
killer
fru
zac
##emus
##sau
betula
##otheca
##sima
zoe
538
##oul
chề
perm
kolo
planes
##mod
aaa
##mato
568
slovak
dartmouth
grewia
mubarak
phalanx
edirne
burgundy
crisis
##villarreal
##sevilla
2025
##eko
##ễn
##jay
473
lola
bram
cow
nj
coelotes
brendan
vec
##gama
905
prion
nhãng
wester
neto
uri
brandegee
charlemagne
hastings
ipomoea
oncidium
schlesien
kuiper
parkinson
hindenburg
kyushu
renauld
juninho
bedford
machado
reason
preview
klose
pearce
##tada
toẹt
theresa
garage
##spin
crem
bosco
ché
duty
##zad
khau
weather
exocentr
918
gent
dash
pd
hist
##dee
##wyn
##reich
diploma
576
romanov
563
wel
672
jeon
đựơc
chickering
indianapolis
alive
topo
##nca
moritz
hơp
kô
chem
877
##lain
gren
compa
boi
##tifolia
kasim
464
##opy
gall
asiatic
902
531
##llus
##ắ
persian
strohecker
goiás
lithocarpus
augsburg
hulk
reticulata
rémy
cuarơ
##zal
##uva
juno
mirza
sond
kah
hes
benoit
gud
trek
castella
##got
khì
pilg
##upe
carin
js
##tau
lich
nuno
##oji
resource
colt
moll
stich
888
mein
piece
asiad
khảnh
##tak
salic
##ibus
markus
655
salpingidae
volutidae
bissau
vinagame
tallinn
shopping
wit
shizuka
murder
##kare
jovi
wise
classical
rufus
##kla
##bata
##syn
nhem
empires
pseuda
##leon
##litz
tatsu
chứt
547
##enheim
apt
guo
horst
souza
##cheri
##llon
sands
##bana
kenji
##onda
##aldi
bủn
monitor
byzantium
companion
furious
hyposmocoma
nymphalidae
cedar
mêtan
##gent
xồm
fernandes
starling
sachs
nớp
mimo
loẹt
##ranger
camille
##angi
dalmatia
etc
dela
sos
alô
##uter
villiers
wool
##sw
rọ
##nelli
idp
tamara
root
tulip
vasco
pounds
##nett
virgil
##page
malme
zulu
kern
families
lodge
manny
zimmermann
##dec
stri
##iche
sematophyll
verne
rỏi
##patna
mouse
cymb
reiche
##dry
cain
clusia
bez
##elt
griffith
iot
apicalis
guyane
tula
589
##arm
##phus
pool
punctata
bénin
##rii
##dari
##issimum
ngoc
##eer
aconitum
xòa
polemoniaceae
marusik
architecture
843
975
rizal
##kari
isar
brandy
##td
##nji
642
cồm
lopho
cantor
##jam
ait
927
livingstone
echin
bilbo
trằn
material
asc
##map
cie
int
martino
sgd
##onotus
theme
sull
rubro
dassault
infinite
nuremberg
vyazma
mcgraw
oprah
714
937
##gaku
904
contest
hayek
kimono
##luc
##ride
carne
rư
##nco
adu
fit
##gliano
##rier
vằng
merk
tere
##tero
##iên
evol
##roux
warrior
##sos
tợ
##fall
##thai
span
donn
945
bering
tzvelev
felicity
annapolis
bện
phìn
chicken
phay
bằm
##gae
bohr
boxing
myung
##nge
alec
trap
inform
cylindr
experimental
belt
##nac
zerg
jak
##tip
hear
mask
holz
##94
##canthus
##sign
gymn
idi
##hé
shir
sarge
nakane
##ppel
##anense
arti
leucauge
wichita
lingayen
sorbonne
diabrotic
holiday
liszt
mendoza
##lley
vincom
sulfuric
bĩnh
prem
tok
clock
##notus
seong
pain
higher
##310
##69
dodge
marginata
guer
witch
asta
rá
comes
##anis
##etic
##vill
##ẳn
vice
ths
##brunn
loiret
polit
##hak
729
chiov
niels
rabbit
aphrodite
pleopelti
saratoga
seljuk
clifford
ramsay
mindoro
phoebe
##fy
leroy
bock
populus
niê
cathay
##lineatus
creed
atkinson
##pera
burt
##lta
canaan
scor
fossil
##sonia
##erra
humphrey
##yas
##nsk
##gro
##osma
1648
canaria
alone
thulin
guard
zona
##main
aureo
##orio
calyc
fache
impatien
rostock
558
carlyle
1766
dear
terre
dimorph
nằng
aud
pôn
591
sturm
khâ
clarkson
lilly
build
arctosa
volkhov
merrill
##board
effects
##awi
##werk
mud
parry
564
hess
avenger
nr
parallel
dactylis
riu
corinth
dipoena
tanganyika
calcutta
frederik
mylabri
bkav
trấu
broken
sheldon
wook
sagar
aquila
cozak
opac
poker
##iscus
radula
cli
carolyn
rộp
##ricus
dến
##nian
##densis
elise
sí
rày
##meyer
sage
##hpur
##gaard
antilles
zebra
##utus
593
vidal
wheel
schiz
nhỏm
##hae
tropic
hidro
gavin
##bli
##elii
jenk
shay
bidens
588
simple
anonymous
butterfly
lagrange
choảng
dewey
abyss
battlefield
maxillaria
poor
spike
olividae
##seki
croc
operations
porphyr
##koppa
dp
603
hab
cod
franck
##erina
##cino
##rop
##amen
nari
##ecia
##tama
##athi
845
alston
biodiversity
pulchella
gazprom
silveira
constantius
camellia
knowledge
madame
conte
madeira
##gap
##uris
canary
cmnd
hamann
broun
sagan
stat
baggio
##mex
riise
tek
##ornis
##say
##copris
##bae
staff
tasman
##naka
byrd
##jiro
##lut
toc
sọt
wap
chant
##oge
##tf
##odor
##urgus
aid
dep
##tola
murad
##mid
##rose
lafayette
siirt
twenty
worldwide
rufescens
defoe
federation
rodney
đuống
diocletianus
trieste
##ttus
cyath
ranidae
vảng
##rhein
alison
caro
mickel
##dj
##xon
fuku
##fre
quint
kost
##onius
prinz
##qs
gông
##opol
berne
pilosa
cliff
##erd
ode
trigon
##uve
##onychus
cryptocephalu
seric
##oscelides
brescovit
techcombank
nazareth
bolivar
quặt
recoba
fatah
mordor
##rne
wolfram
kakashi
cáceres
##uza
743
721
amanita
##alt
chái
archived
##gge
mort
##pé
angus
tec
xuy
hien
894
##mene
##nori
##ddle
643
collin
trier
yves
##name
monet
##thana
012
637
yai
sse
diss
reli
##ầ
723
ém
aberdeen
gómez
infinity
kalimantan
raphidioptera
midnight
boheman
coffee
crowley
dôme
kazakh
##egg
##iifolia
kathy
ptycho
##uno
##ẫ
##pta
##cup
rudi
##aur
mago
peta
##uj
mannheim
##cto
hades
##rist
##dentatus
mechanics
burger
borowiec
variety
fokker
harrier
compaq
capcom
sioux
##iev
wilkes
proctor
##entodontaceae
##zak
disneyland
##lense
pinto
##hang
##rip
kash
##ages
colour
tòan
##news
##zii
##miya
##ats
webber
fée
historic
gees
soto
nhón
##nych
489
##tory
greenspan
guantanamo
kulczynski
lancashire
faraday
podlech
greuter
gundam
oldenburg
dioxide
##bảng
meeting
clin
pelé
guiana
cymothoida
shinji
##merus
parks
albus
##rava
fai
##ếp
bui
agra
bode
##tting
##thur
##nse
karelia
csc
babel
##post
lak
##tsi
meisn
sutherland
verbesina
dalbergia
beaumont
fourier
magath
split
##lka
##bag
aral
bes
maori
cheek
diết
##lodes
cet
hr
ươ
sind
916
sans
##cole
conti
dôi
simplic
kis
##ốp
##bers
fourn
recording
ely
##enka
release
krasno
##yard
##ssan
hewlett
phễu
vnthuquan
catholic
majuro
finance
documentary
rumble
wickes
nhụt
corona
beckett
##fulham
##kle
psycho
yunck
pok
##chrys
lub
##phyllus
athous
##enga
athen
598
grid
nag
moreau
tfs
silas
curtiss
##cell
##film
savoy
sua
nis
##kop
arden
##egan
holst
spoon
taj
midi
magma
rôi
phnôm
kazantsev
kamakura
bromwich
gwangju
myrtaceae
heteroceridae
7887
clive
##thgen
wiener
brev
miracle
former
gnome
##voy
gravesen
merino
##pai
##160
##mona
ftp
dx
717
##skyi
584
##dv
kes
insula
shige
phylogenetic
esc
##pino
##198
patch
mew
##petalum
macaranga
marguerite
vlaanderen
gatsby
bulbophyllum
cowboy
above
yamagata
nhõ
clamb
normal
framework
##aker
tetr
clerodendr
##champ
heidi
936
lằng
seem
blau
##arga
751
633
sept
donnie
##von
##ặ
##kamp
karim
rubr
píc
kart
natsu
agar
##110
saale
gama
##hey
##99
reserve
chamaecrist
conflict
inkigayo
piauí
reinhold
associated
ngưòi
##ép
tĩu
kanye
thuyê
bấn
lamar
moravia
ních
vdc
eyed
##sworth
sla
bea
coban
gos
ampl
dharma
zach
character
germania
decne
tools
hitchc
medusa
nest
lok
process
##kina
ạch
##ập
hohen
##tty
cj
##dense
eocen
##fert
##rode
brezhnev
duméril
mcafee
bilecik
reinmuth
ðiên
gartner
dimitri
rupert
bronx
cobb
##cari
638
##group
hisa
##nyi
681
karma
##cion
##hia
##nchi
héc
##lazio
chaet
rubi
rambo
##vant
ear
augustine
##sell
484
##skii
coron
úa
##tle
fag
arta
nhẹt
##vall
alvarez
wiedemann
portrait
properties
segovia
##ostigma
climate
evelyn
mikoyan
##tali
following
cityphone
ascorhynchus
dogs
##owitz
gỏng
krom
ngắc
recordings
kup
##bok
rói
angusti
petersen
pio
jol
##god
##nak
##tag
##eratina
brenda
641
648
##stachys
664
arri
gland
wizard
##73
gastro
fourth
##sini
đở
molo
##phen
##llin
##yak
epa
alopecosa
esposito
peruviana
rôlinh
rịt
vladivostok
tardieu
boson
kikyo
gprs
hokage
laguna
camara
shorea
habana
rỏ
pyramid
##signata
##taceae
whi
rươi
hoch
bím
hydrogen
anno
##relli
pw
khz
hiêu
##rex
cosmo
riaa
syr
##alba
ney
##machus
hanks
object
lorenz
##text
navarro
société
cctv
crescent
pattani
antigua
lôgic
thuồng
might
methanol
##iglio
loes
townsend
nieuw
mercer
ozawa
##113
629
ozu
halogen
##nectes
sacramento
brady
britannica
##lophus
##chem
weso
dak
aristid
trumpet
melia
##eret
lut
##drive
klug
sph
hessen
##agin
fimbristyl
shira
##cie
##sbach
uno
##glo
##mania
lohan
ahmose
ghraib
guadalupe
lesotho
montpellier
rousseau
warfare
slipinski
cherokee
mirabilis
villosa
phấp
ame
microphylla
rubiaceae
gấc
cava
trifolium
affairs
dolichopez
##tsky
rua
enzo
##vac
leaves
chamber
điốt
guido
##ẩm
##thanh
greenm
gott
##raga
quantum
gund
##lzel
nit
travis
##cf
basten
drum
##dhar
northampton
091
lãn
mista
695
bison
##ầu
587
ectropotheci
strategy
tautenburg
zagreb
rịn
gmbh
herschel
summit
farrell
blyth
garfield
885
##eriana
nikki
##mima
##sian
spee
mino
##tricha
##icolor
##ector
##bac
##gast
##ớt
tone
##radi
pag
lien
##lais
539
##dad
##gazi
amal
xb
##nts
##ớc
##510
qur
##silus
685
##07
psa
dieter
##210
hợm
lausanne
openoffice
penelope
statistics
axetat
revised
xhcn
jacqueline
voltaire
templar
sergeyevich
kezman
clemson
freddy
patty
scream
kaz
##tation
##erin
prost
fuck
mandarin
gorilla
willie
caen
kirill
walckenaeria
rules
rut
##nese
alvin
brando
##lago
##anthura
crime
irr
##kura
##maa
##cosa
alyss
##rch
745
##lius
##api
lacertidae
messerschmitt
thũng
trapattoni
wednesday
muammar
raúl
costello
northwest
##atha
##phlo
965
688
camila
dieu
##tmcp
sprint
rp
##asta
echinops
##illet
##kensis
##corp
##pati
serrata
804
spark
argyro
alp
campos
573
ess
##pita
ott
prat
angie
yom
khự
wallis
eros
amadeus
cappadocia
freycinetia
professor
herodotus
calathea
berkshire
merlyn
xệch
##echi
magni
jef
ora
wulf
mito
634
nestor
1644
##stown
##ậu
ngáng
##aja
dial
##calliostomatidae
##love
##roe
ug
##ermann
paras
kaku
lowe
jc
ez
##bod
##dino
campyl
##kale
##vl
myrmec
bone
christenson
aragorn
peregrin
montevideo
matthias
donovan
##ación
gaspar
##ability
novara
##derma
ophiorrhiz
terminal
##tata
krung
sana
##eger
linder
924
7909
livingston
##oor
##sepala
##chow
gardens
pare
##rub
##oye
salle
mountains
gatt
panh
##cial
katsuura
cult
kada
véc
##ằ
styl
guns
##dipterocarpaceae
coventry
harpactea
iglesias
ngoáy
nướu
pegasus
rhynchostegi
rodgers
rựa
wladisla
countries
cremona
premium
monday
gaudio
thọt
zh
horace
jared
nauru
haus
poland
glauc
##yam
grow
659
caudata
vom
##ombo
##cey
607
586
nigr
yam
##ếch
##mmel
649
##ài
krai
sme
dig
strau
##asca
##ager
##aml
##các
sell
##egi
samo
fusca
leader
gour
andro
mươ
nog
ashikaga
democracy
entropy
khosrau
shepherd
volkswagen
kaiserslautern
tikader
identity
guatteri
hardcore
điếng
polystachya
baranya
gab
##oris
vinyl
##ebo
okada
vanh
cation
sauber
nasser
702
##spic
dram
##tơ
##flu
vích
hừm
due
oka
megal
##ozo
phyto
emir
##anos
osi
##lova
##uja
##morph
929
##xơ
wc
pycno
paralympic
yudhoyono
amelie
aksaray
salazar
matsumoto
authority
zoology
ă
target
ruud
pim
##vida
jihad
howden
directory
ðộng
##atsu
tep
medi
corbett
##erov
cit
rfc
tinian
##rillia
537
training
kris
##iru
gaia
##insk
simba
ske
##tá
loà
stokes
574
wis
nava
##mela
##dat
maga
karsch
nee
mèm
worm
vien
##path
##dtirol
barychelidae
benevento
combretum
kodansha
olethreutinae
surigao
written
miroslav
shotgun
mahmud
phắc
rosario
anthren
abydos
copernicus
westlife
pow
sterling
kleist
those
lexus
dior
##city
##kreis
adults
muk
##ongensis
yue
chủy
##essen
elm
##maker
##lève
linear
##199
lốm
armand
cruiser
##sir
##sham
zhi
##apo
##uen
##ẹt
application
appa
##hol
campylop
meng
608
##wit
##kami
andrés
tskh
grab
##nden
##ák
guantánamo
mclachlan
mitterrand
moldavia
thousand
ôzôn
dallwitz
brignoli
swagger
lithium
beatrice
unicolor
##jia
ăngten
selected
##scu
issawa
bidv
ngáo
ghiếc
benito
861
hein
lenny
memoirs
##khe
##dg
harvest
741
##ehr
##ayo
cristian
durban
eff
##sj
hands
chạ
##tibialis
toward
groups
bẹn
sasa
reach
##dje
##reme
create
serrat
massimo
926
constantin
sumo
speak
amir
queo
fruit
commander
reichs
echino
pamp
champs
lego
rât
##jas
pepe
broadcast
beilschmiedi
houghton
bayburt
manitoba
teucri
cadillac
utrecht
antoinette
rhett
##ocactus
belletti
skynet
voa
##corn
881
ginger
##glossa
##eville
##cet
biet
emerton
##asse
##mv
##costa
andrey
cephalo
chaiman
606
tunis
prance
##ền
##ké
peptide
columb
itf
yeong
##chang
scut
cand
rog
mash
##listia
writing
##urt
##centr
704
583
marian
soe
confederation
heliophanus
invasion
keangnam
poultry
acrostich
blanchard
contains
ctcp
economy
asgard
kaiju
linné
gadag
tyne
##ghatta
932
thăn
##dii
##eka
brass
##nha
kp
microlepi
##cé
schneid
batu
morse
crash
kts
atari
##ony
thank
nạm
prob
##nita
##iller
##lium
arras
##mitra
##dro
##khar
sah
servi
points
##êm
draconarius
finistère
materazzi
odyssey
richelieu
##hmas
predator
ryholt
ferruginea
vocaloid
minerva
castilla
scofield
##kke
##guttata
đùm
woodward
nagy
##kit
pyg
##gay
##ellia
silica
##bates
##ãn
bunker
##tong
##iler
karp
##lles
torch
##agua
gupta
##ostemon
fore
##lder
pskov
phosphate
##thos
chirita
bks
eaton
ỏ
##acus
lêô
pony
##pedia
gad
gamba
##zhi
yankee
nucleo
##culum
546
cala
##mey
##lda
##oura
southeast
chiloscyph
commercial
maskhadov
rivière
trentepohli
whiskey
velloziaceae
podcast
vegeta
kaoru
frankenstein
pseudoc
##slezsk
concern
xnk
##het
melli
pbs
khufu
##gha
##itsa
tool
mec
virid
juz
volt
gif
poi
##hardt
vespa
virginie
wein
enigma
serr
pepi
866
829
651
tris
kirov
##esis
rioja
sina
ipo
parra
##olla
bring
597
chikkaballapur
coppola
cynanchum
pyrenees
teucholabi
platform
auxerre
yoshisada
beslan
tqlc
melody
ulsan
gigantea
hoắt
rosita
##fri
seagate
nichols
805
steph
fontana
cocu
comment
chã
brett
cắc
words
montanus
##sov
mio
##hà
birth
hirsch
##utin
##kent
##gali
##thứ
plagiotheci
cort
adventures
phuong
mille
##work
##uit
pera
bst
##ocha
rhineland
pru
sx
##mitsu
##àng
xiển
paso
punt
asturias
chulalongkorn
djibouti
meioneta
nouméa
palatinate
tchaikovsky
hitchcock
pretty
wheat
watford
herpes
fortuna
crimea
fernald
bomber
##nette
renee
viển
udine
valve
giza
xxiii
hime
gynop
##esch
shing
falcone
##iser
miers
pulchra
##vale
756
1772
tigris
kếch
##idge
##đê
cristina
nui
meade
barrier
chain
689
##yre
deli
##script
819
natur
##ecta
561
neg
##vani
oằn
vincennes
murakami
caucasus
hoehne
avignon
mitridae
gyeonggi
##onitis
aegean
cms
##gei
##obia
varese
kuang
##scheid
##vich
hutton
##ltepe
marinos
##tow
boe
universit
##ptila
##ectus
eliot
hùn
rây
939
ric
faw
##tale
844
leh
##tele
##hawk
xyl
rada
899
emanuel
gallia
##chromis
chihuahua
hebrides
márquez
rudolph
jarvis
baikal
economist
florent
babi
##zard
reptiles
spartan
863
itachi
josephine
661
##stele
phat
parabol
vaart
dynamics
sith
cw
##jov
zak
855
qgp
##isation
filippo
##tzen
##thể
polar
zwei
nach
ort
##orsk
zeit
serial
calder
histamin
##ration
##igna
731
##stis
##kham
##lines
vov
pilos
feld
gael
ise
katharine
mauritanie
nukeviet
uchiha
miccoli
pumila
haw
allmusic
oxalis
sawaco
growth
##icht
shift
##cini
##mada
gườm
hex
felt
oberoni
##ws
##osasuna
hydrat
insects
teri
943
africanus
aru
vb
artists
bray
##wil
glabr
kilomet
##viet
nikola
nganh
cock
##atu
teu
schumann
##ổ
froes
##abu
##nosuke
conway
pach
cary
orthotrichu
##hac
##avu
##sano
decepticon
vietsovpetro
melaleuca
potomac
swansea
grenada
wimax
pandora
highness
lilian
sion
schubert
##fasciata
rhod
exp
stud
lepton
clint
folic
879
brie
##dicella
pira
turbin
jenna
##kind
##kau
##uet
cambodia
##dah
neckera
arne
tré
capi
864
faire
rare
zum
cyril
##93
forms
##phat
plain
corsair
innocent
tvxq
félix
##quo
harmon
rường
ecnomus
select
##rhynchus
timur
##pleura
aci
loai
##ikon
##hisa
verg
ltte
892
##mers
linearis
linn
noir
##lite
imam
##ckel
##mium
metric
learn
##blo
##zl
609
atv
569
##rice
alpine
##beyli
snake
calci
swat
aly
musc
1660
dura
patri
chapel
example
fifth
galatasaray
maranhão
spermacoce
ritchie
winfrey
tweet
##thin
aniston
macrocarpa
schmid
everett
harald
pros
perseus
quánh
gradient
delgado
vói
koyama
mún
catch
##mach
##novo
##stans
ionia
motta
breton
garland
671
matthews
ibra
##109
##sed
##ocereus
petrova
##eric
##lao
tụm
flor
##wak
##pex
laevis
##urin
592
billie
isola
##lausnitzer
contract
terri
goal
fernand
anatoly
mathieu
myristicaceae
##mochthe
kelvin
kensley
rhomb
kewell
barlow
fauna
đuông
soẹt
##kote
duong
acta
copelat
bid
##ocho
pavon
chảnh
665
##cili
luck
caf
lecture
spence
##tig
mớn
848
##ache
##leu
joint
browne
##éc
##utter
powers
nhản
vhs
uma
done
deutschen
##anes
pago
haz
##ichiro
##zona
##cock
##rith
##git
honsh
teams
impress
escape
tuan
955
galle
##iji
oca
vac
vida
sculley
vitebsk
located
burmeister
stirling
burdur
quarter
guérin
umbrella
zlatan
modi
winkl
hf
teruel
cot
rust
rancho
spain
strabo
geh
##ulent
##dder
tradition
##opi
colon
nate
tomb
##shita
denise
##hd
fyodor
tot
chow
##jutsu
##att
karol
##rati
mund
label
##hod
##bec
594
pops
smithii
##aceus
scal
luka
survivor
##maro
det
blo
mole
khạo
kraków
lỏm
oldroyd
turkestan
catalina
flamini
achelia
bloomberg
##tien
dorset
##matsu
##lestes
##ceum
elk
armando
sister
walton
littorin
##chievo
##erre
pilea
##stor
pít
hertz
##uko
##430
##ments
vau
areas
cun
doll
corticoid
nst
matth
osmyl
##uo
lava
873
776
##upi
792
##plat
moa
rubens
imagine
theron
##pteris
reh
abruzzo
carlisle
figueroa
gladiolus
irkutsk
morbihan
sàigòn
erythroxylum
##pari
thriller
browser
##kovo
fia
fulton
ohwi
shore
maritimes
nhảnh
toldo
kanon
chemistry
sasser
grin
carrier
systematics
##atletico
3166
##spina
##aran
fahd
enc
prado
##telea
anomal
eubel
##nev
854
hooker
##thong
typ
navi
##ẫn
##ithorax
##nich
##elen
##gres
sousa
##íc
##dle
##ols
ljubicic
psephenidae
tashkent
ubisoft
collège
newsweek
fermat
interrupt
enrico
rocker
##fp
arctia
gầu
lips
reform
connection
nagano
##zol
ronan
##veld
##mec
flame
bandai
duran
beni
##belia
##ụp
hospital
bowers
##ér
##tors
osin
tee
selim
lêu
riccia
shik
##mati
##urata
##leum
dinar
ttt
##noy
##khon
acker
volta
##amide
amman
##mpi
rocks
701
ammothe
kondo
##ược
kien
##rade
##neau
paleo
##ency
boeckeler
comparative
tarragona
ulysses
reims
quezon
##seri
isla
marlon
sapiens
##mr
harmony
ghiền
makarov
gregor
rhodesia
alata
rel
tracks
vern
castor
##ronia
##oxylon
##dini
roz
##seo
applications
##bina
belfort
##wes
thênh
##eis
goá
646
belur
ord
tuýt
##noi
gifu
cascade
ỉa
##agne
daw
sib
##iani
entre
fêlixitê
gẫm
hasselbaink
pitbull
sarajevo
sputnik
lisboa
allianz
logunov
mamluk
kocaeli
shirley
does
rắt
schiffner
prada
lesnar
gera
ceres
relationships
##ivi
##phorus
##ceus
skull
##katsuura
##ngày
ghém
736
##phanes
ðứ
886
##pani
##engo
carla
charts
951
aza
capra
tian
##anz
##colo
khem
spath
stevenson
boucher
tft
pell
vivian
tern
gá
ledeb
glauca
fossa
calceolaria
chevrolat
funimation
lulzsec
syracuse
thomisus
tsubasa
astronomical
sesiidae
bory
rởm
beauv
##gula
##106
##ellen
lupus
augochlor
bowman
schindler
##adurga
garrett
across
magellan
dingo
amo
##ande
##ción
##jón
iec
scorpion
slide
853
##tree
##eker
zheng
leme
##ís
lop
ernesto
villar
prior
657
##afa
##bler
chapuis
decipiens
dreyfus
guthrie
inuyasha
robyns
administration
calceolariaceae
neymar
caladenia
##dex
burnley
gateway
sheila
gặng
usm
chõ
ruốc
##utta
##tipes
##bá
eur
##hri
##rissa
măt
##cen
newark
pomerania
eckl
##birmingham
augustin
byron
harding
sướt
##etes
##lmann
gigas
éc
cahill
demir
##wari
xeno
stig
camel
zie
##ghan
edmond
##fusus
##dict
shake
##smith
toba
mist
##rí
callas
663
##lax
porcellio
chxhcn
eryngi
stéphane
hibiscus
robbins
gestapo
arlington
barthez
gorham
7863
proxy
732
railway
ovata
7881
##zek
ôhira
##aban
896
huth
meiji
040
messier
tepe
xếch
kasa
beu
##arri
##phallus
##phra
orlov
hav
hây
qt
groves
content
taman
979
##sandra
##óng
whig
juba
##juga
aer
cùm
natalia
##ceras
guill
dist
lav
russo
gamecube
ilyushin
steaua
thutmose
visigoth
seongnam
according
detailed
guetta
hurt
fila
preah
hochst
skye
until
phy
grimes
kashima
##107
mercy
byung
achaea
zined
##owicz
astoria
##latus
agriote
##teau
tvt
##music
negros
passion
oblong
vđ
minami
bland
##vera
##jeong
lawson
stephens
##bp
##thorax
##jal
##eolus
tila
1592
sác
anand
trum
welt
ralf
rosea
gemma
tăn
##tane
##ruf
##lopsis
scorsese
smilacaceae
beginning
corinthians
symbol
tyrannosaur
##iste
streaming
bottom
verd
benoy
##tima
mèn
##nek
##ậy
schizo
##vig
agave
##rve
##allo
otc
##rla
hđh
gotha
sj
##erton
##elina
656
##eurs
##maria
truyê
route
##chter
itc
durand
833
heim
##adia
##nsky
aha
##baum
##irostris
##bour
syst
##pterus
franken
##ostachys
annotated
aspalathus
farewell
nhòe
sciuridae
atriplex
ovulidae
weinstein
flavescens
ageratina
protection
vineco
zhong
##ebrionidae
eleven
eriopter
theresia
##dinger
##loc
mcgill
deer
762
flc
aslan
bmi
852
teru
##603
olympics
steiner
##thor
785
##tse
casal
isopterygi
loop
cuphea
sada
idf
rọc
amara
masu
1001
##gona
pá
layer
807
campus
dyna
follow
##chie
dendrochilum
mendelssohn
ntfs
rhacophoridae
sđnđ
thững
primulina
birthday
splendens
spectabilis
bren
##cut
##uồi
##fia
naraku
vitali
zeta
miều
##hala
trichostom
downing
##gp
##opoda
985
##asteron
osho
749
calyptranthe
##triches
bim
##bala
1650
siva
rings
##calcar
cuông
mica
##hensis
##ulf
kovac
hl
really
##ntha
##tila
gigant
taub
niki
cauca
##machi
bươn
tubercul
gut
pazar
##sack
##boo
##park
##ờ
##cti
franca
hoth
578
prosopoc
archimedes
laplace
leibniz
ramírez
salticidae
saskatchewan
omaha
welcome
mystery
allocosa
magnoliaceae
daswood
bazzani
giắc
ripley
anakin
hegel
##gii
diềm
##assim
##kola
capone
pseudos
##104
marxist
bereg
dransf
851
##rse
levine
##rơ
##zes
759
##ât
silvia
eunidi
##taenia
pran
legends
alpina
##tka
aron
rivers
677
##ssier
##cek
eleochari
##jah
##roni
itu
asus
##ignan
728
##aut
calderon
communication
andres
##hoku
bose
##aar
##iere
654
psy
terror
fumi
collected
kluivert
rutherford
synodontis
tanasevitch
anastrophyll
dengeki
loasaceae
variabilis
stereodon
luce
comedy
iljin
nehru
éditions
sonora
scleria
##pteryx
wanted
##bling
bartlett
903
slavia
tanya
##opolis
bombus
flore
##phas
##quest
nguoi
##moides
join
llc
mikania
##ching
##saur
9000
##136
##plane
gluco
##hot
arsene
arachni
##raki
ged
boyle
##hydro
857
##ucha
progress
pattaya
somogy
balotelli
haplochromis
dnepr
huawei
tenebr
warcraft
borneensis
##zov
libnot
savannah
773
gột
tricolor
gim
đhdl
##ocarpum
##enberger
##issimus
##ọp
medal
##yce
##dance
##dema
dual
warm
vicia
gramm
fas
##hong
cities
##cao
##5000
papi
806
sexual
eis
774
##olia
xâ
thó
##dulaceae
risk
974
##ising
##tid
##arte
brin
linus
##alto
##hmcs
nghệch
##ipo
##108
##lco
##hman
##tul
approach
##tyn
alpaida
amenemhat
khướu
peabody
shanghai
tgđ
##ansky
eupatorium
digitaria
nhải
letard
suzu
vố
benin
relations
944
##shen
070
hedges
phệt
hogan
##dham
##palermo
1769
philani
pauli
sansa
##kut
mố
scr
giga
##hmen
marks
crowe
obliqu
romanos
peres
asteroid
pune
##103
manu
paulian
parv
##agma
novae
yukon
##science
kenn
##right
vga
pleistocen
perak
ngộp
aechme
comprehensive
dipseudopsi
doppler
hausskn
hõm
paracetamol
essential
isparta
kendall
##volvulus
ortega
workshop
fatima
ophioglossaceae
nhương
chườm
richland
nie
haifa
linkton
mácma
ðát
##ngen
viper
##clada
ngâ
schenkel
##dictyon
turku
kari
cacao
velutina
cip
hebe
##gem
trish
1661
bello
ét
##hur
reinhard
##wc
strata
##ignac
node
##inka
##test
##gano
atlantique
hercule
##guri
lign
henrique
cookie
011
tourist
##rob
##bàn
colubridae
corydalidae
gérard
sprague
godfrey
cycle
programming
address
cascadeur
aleksandrovich
khịt
cano
bragg
toeic
royen
##enzo
tns
selection
sugi
saab
thá
##rger
orientales
##elson
839
hec
##mill
976
bout
tomé
daphne
##vine
agm
batrach
coburg
alfa
croce
solaris
##lion
kuz
zab
##lls
brahman
techni
blank
##tipennis
cx
##puri
acr
nemat
895
##avalli
kono
zlínsk
focke
676
tars
linz
ophi
condoleezza
hodgson
kamchatka
mckenzie
qùy
serginho
wiltord
eternal
tenerife
winehouse
lynx
##sker
monterey
cleridae
chẩm
motown
chodat
##ukur
angelica
ngoác
tripura
bingham
grady
micrantha
##edemia
##pping
misca
brahms
hipp
##rva
831
##anthuridae
kamp
avro
crater
wir
##iata
koo
781
##plagiat
##sui
twist
##ợt
zuid
vợi
olt
##erville
idea
americana
##versa
espn
##ngan
estate
ardah
endl
barth
steele
coru
mikael
##logical
rolf
gustaf
microsystems
novorossiysk
wahlenbergia
zalayeta
ignacio
mclean
freshwater
tixier
bernstein
didymodon
mystic
peeta
osborne
865
rocchi
demona
toei
christi
purcell
##lden
launch
arge
dillon
krone
##gnon
alm
lahore
carlton
644
aman
waltz
##culatum
dara
ishida
gutt
candida
eid
tj
nhụ
bơn
##ckii
##ssler
roa
esco
phosphat
roem
miso
##ury
##laccophilus
famous
giacomo
galilei
akkad
shrek
allawi
colla
##ugi
jammu
merle
##dentata
##dice
##vittatus
copper
##chae
##atti
nantes
hir
763
##keri
##fic
##kage
ilya
actor
nya
stanis
##610
948
758
baraja
schwa
xabi
thưc
##gga
horno
bmp
aulac
##nals
995
hoshi
yas
tsar
##hip
đũ
goya
##stal
cathar
essay
ameri
boon
lauterb
oost
baggins
carnival
davydenko
euphrates
henrard
huguenot
sapotaceae
parvifolia
brevipes
##ulia
assessment
paniculata
##tome
##ostegia
grimmia
joffrey
lyndon
##cv
subs
striat
damas
dynamic
dudek
##yaka
##sseldorf
purpurea
jenner
966
oli
bẹt
fol
anjou
##sensis
##cleus
##ouse
barre
##ctenus
2100
dodda
##rte
musk
##betis
##thrix
##ousse
##kyo
meh
pras
##ương
ness
saray
blow
##throp
taki
928
gir
##phu
##lass
elder
psi
##ink
dama
ngoạc
systematic
##gene
sook
##meri
678
##print
takes
653
aquatic
apartheid
erythroxylaceae
hatshepsut
huperzia
wilhelmshaven
boulogne
channarayapat
émile
dakshin
heinkel
polhill
nepeta
gennaro
gubbi
outside
avar
brasileira
labor
ando
patriot
922
microstylu
vved
poepp
greer
oni
problems
##tilis
crepidiu
svay
##jana
longhorn
##other
alter
vahl
kew
##cept
##ibo
##space
insect
##dul
##về
coa
toanh
esca
aro
casas
##lym
##eun
662
786
rỗ
regis
876
sora
##sque
barrichello
computing
dajoz
hyypia
sofitel
sukhothai
ubcknn
willoughby
domenech
swallen
sunrise
repens
colchicaceae
riverside
trophy
named
wear
##ór
##dzi
daddy
##inha
glad
##hle
##espanyol
acal
##tell
##dow
stefani
##ikk
ðề
##quen
##uana
ulm
##gonia
669
kendo
curran
##mouth
##yc
##rete
##rho
melon
733
deva
adv
eich
longitars
auranti
wine
griff
bic
mizu
castello
2200
##urlu
reports
pitch
##othrix
taiti
##koku
patti
##ochi
hove
##dez
753
703
##was
abbeville
akita
mahathir
pleasant
rupestris
rhynchosia
zygophyllaceae
sagitta
oasis
sylar
hidden
cori
aurea
blast
kee
polish
##pine
nusa
ciliata
##erna
vib
blasi
884
##skiy
wilder
752
zucc
##yrus
dir
ulu
trog
bonin
##ssey
fulv
783
##othamnus
##umba
##hme
bertol
##psi
##stead
687
##intercontinental
bronckhorst
deborah
hohenzollern
lviv
hockey
ferula
cyprus
846
mủi
đtvn
thãi
cullen
kaito
wedding
##celli
rí
mie
ausf
nickel
duffy
fibr
##watch
##lheim
chổng
dap
dip
morte
chal
##chos
##simo
platin
janus
kesha
##lona
##vian
cid
697
##avo
jian
worms
micha
1550
vell
##toku
dagestan
lufthansa
typhlopidae
cicurina
panorama
suzanne
eggsy
creuse
rigida
aleppo
tass
yangon
guil
906
tarzan
phùn
##burgh
fleet
##ahan
tampa
954
oskar
##sem
fad
udon
##alstroemeriaceae
testace
druce
pelt
##kir
##uých
1016
tire
##some
cecilia
virg
issues
kond
corb
##oleon
jungermannia
##pida
ohm
##uzi
koga
##amomum
parent
mero
##abo
bùm
##ceps
meth
fool
hradec
##ssus
946
tetsu
scher
##rán
agro
anniversary
berbatov
eriogonum
karlsruhe
paparazzi
podostemaceae
barleria
cessna
netherlands
smilax
chrysometa
illyria
quality
miriam
##yphus
##agna
ritz
##enet
harling
graves
chari
pusan
##oya
739
849
leary
modesta
juniors
đệch
laugh
901
events
1764
##liana
##orkis
bek
ferry
lũi
kni
yet
seville
nhởn
##rung
afghan
##nais
##onica
##vaux
##iot
##atal
dll
##ody
esa
fasciata
scarlet
082
cmos
torah
##xu
btr
gianni
##yevich
ampulex
castianeira
dauntless
kathleen
merseyside
yourself
floribunda
kuching
veronika
heliconia
xuyết
quarterly
cassius
bitburg
##sino
fiona
897
dietrich
##nker
soprano
fsb
##utu
##rts
##ndal
plu
eddy
robo
dispar
hydr
sepp
##rado
sperm
xm
petrie
schiller
883
sawa
dad
893
faye
pseudop
fac
elliptica
moulin
##168
##oin
transfer
744
maison
oral
004
uz
##gler
##rno
mms
kimura
##000
cart
ogg
##eller
elia
corre
3500
1492
ust
bore
kinabalu
dickinson
polynésie
gigabyte
lizzy
rivaldo
junichiro
guzmania
##hofen
myspace
homme
chevalier
hdtv
playoff
antimon
hunger
darth
mosul
settings
francesca
##tru
hmm
spr
minutus
cocc
nilsson
texts
chạch
partners
slo
cancer
##talk
784
##250
##ém
842
##iorum
##chov
khar
ade
##cestrum
##ỳ
younga
prom
neue
766
giử
##gonium
spo
salva
troll
phaeo
##sent
mobi
878
709
lasseter
saqqara
tobruk
universidad
alvaro
bochum
centimet
fantastic
piaggio
barn
fallax
gorky
bucheon
madras
sorbus
sut
mazda
nẹp
líp
solutions
santini
phegopter
ebert
maslin
negro
##enensis
baird
##elis
##080
##ways
alamos
##cá
combo
thales
yeo
suga
miko
##hul
##hide
837
keen
##hui
##nj
vef
lys
jug
##arjen
##sap
pahang
sake
perspective
soldier
##tap
##sica
##gian
gei
hathaway
gironde
snyder
pauciflora
sophronic
census
doubleday
balboa
electra
persona
daimyo
markgr
rennes
nasu
morphine
forward
nhặng
##ffen
##rner
##wada
hypsi
##clytus
931
##hood
##udge
cruci
khoi
##krit
josep
grayson
658
đốp
timo
##huênh
kwan
019
crist
parodi
ppp
##jk
citro
runner
sein
##tarsis
##ibi
classics
indy
rect
##raja
jour
##tters
terrier
zang
##tika
subc
##ianthus
cụi
strato
fb
##chroma
##rdo
zw
sae
autobot
equi
davallia
##arthru
nột
##shed
abigail
bollywood
hyksos
nyuserre
oldenlandia
schrottky
survival
ambrosini
goodbye
gottfried
bolzano
osmaniye
kashiwa
prabang
comoros
zebina
xerox
offline
esteban
azul
##wad
##odactylus
cyphon
shape
##shing
gụ
##bru
rpm
sericea
002
fitch
chiapas
##roo
lua
native
##vietnam
##yphostemma
shiba
rubra
##ayan
##meris
charge
welch
alexa
unc
baz
soma
lith
##zine
holl
arche
##esthes
vồn
##embe
visit
015
hep
##tsov
lemon
mati
tonkin
tej
garde
carri
charm
reprint
tọt
yucatán
clooney
salvatore
spaniel
citrus
nathaniel
yellowstone
gành
selenops
calophyllum
dictyna
melitt
xấc
buena
tutsi
##pea
toru
silat
hama
##leigh
pela
835
tna
nhớp
avant
##miss
##ophrys
##ễ
##ód
chuc
snap
##epe
##ík
leave
lukas
030
jews
778
reporter
##ott
vig
##hoa
##dion
1730
acha
psych
hydroxy
##tracantha
##zet
##botrys
ind
##ift
##mper
##sses
sibir
silvano
buc
##sine
794
murat
dicty
##hlen
xửa
##kana
##zk
caldwell
mycobacterium
spiegel
szabolcs
phineas
murdock
multiflora
tenxơ
##riano
odd
synema
archibald
lavrov
fredrik
shoten
haruka
blatter
roux
reap
sata
##yet
gladbach
busters
genius
##ỏng
##eigh
zion
olympiad
nặm
martinique
basin
024
##buch
##tsugu
arb
##scens
##tw
aut
engler
fresh
barak
mend
052
gotta
682
##dama
tourism
solen
thụp
shine
##kuyu
cq
##goro
jena
##ond
gwang
patel
tristis
ceará
grozny
maverick
nucleic
poltava
pythagoras
ucraina
zamboanga
gondwana
faboideae
ishikawa
coriacea
philonoti
huntington
##isco
gangster
##nir
10000
tali
##olit
fara
piccolo
carver
svihla
dario
parac
đuô
##mk
987
dialeurod
##notatus
765
eck
chnd
698
799
##ghz
cere
vitex
téi
blephar
sense
##rolo
742
##meter
ure
camelot
generations
ssc
whole
##ôt
briq
##bao
đị
astra
##éri
plutarch
zeb
gyu
##katsu
fix
cec
liến
painter
tmesistern
achaemenes
applied
asellidae
iaquinta
nkvd
paraíba
tênácđiê
wernham
mysterio
dombeya
qúa
dahlgren
essonne
geoffroy
noteridae
kungfu
sera
sạo
hort
##enthal
ready
769
carm
frisia
nitid
yulia
596
miri
gable
puya
##uce
##sonii
##plast
venera
limo
##poma
khàng
##nois
##sek
##tland
##emer
chới
##labus
parva
bris
nus
971
##jani
vươ
##nite
##michi
##ột
pray
dáy
euphrasia
grêgôriô
pernambuco
prokhorov
response
wolverhampton
siphocampyl
federico
merriam
eremophila
display
endemis
fortress
shetland
maduro
courtney
##uỗm
##hna
athlon
mccoy
mệ
##bound
ntk
gillett
dunst
luo
##ló
##chot
##orhynchus
tres
arda
##uci
codon
bible
capua
tuber
##zur
perc
871
cesare
##illac
##chủ
chronicles
##chino
969
##opis
##stroph
digi
##gye
bartramia
aris
maculatus
##come
dav
708
##sium
898
##hung
692
##koi
shizu
jah
inner
##tmn
limno
rhipid
iridi
cheir
809
##onium
ngỗ
pilar
concolor
pup
burrows
ganymede
mcqueen
qantas
millennium
yasukuni
hernandez
kandahar
##arsipur
kumamoto
wrangel
rubri
avril
ramadan
muggle
understanding
pieve
grave
bowie
morley
sampson
alca
##arapet
mayenne
##ocharis
rani
qp
fever
prodi
osm
##rklar
##cale
oster
##laya
##kovic
##bed
891
plectro
dumas
##wich
ined
##korn
listen
drug
##gea
giave
847
pietra
flori
kaki
otter
##room
adler
naz
lupin
nub
paw
782
frag
2600
freude
igua
##dua
clericuzio
competition
mestalla
saruman
shostakovich
siegfried
transvaal
kuijt
sylvain
liquid
amegill
pseudagrion
fatal
##eschna
dirk
angry
hằm
dicranella
franciscolo
tears
marques
##mental
photographs
send
dóc
kusa
metyl
mph
kuri
quèn
##arus
cren
halley
##uin
##mand
products
##hatti
986
christa
seon
##shko
jor
multiple
##rema
pittier
bedd
##ganahalli
673
095
blaster
##rso
phenol
##rnak
##uối
manda
rts
comte
##mohan
exell
##fest
##tice
##jou
771
anita
brancucci
britannia
chesapeake
milwaukee
suleiman
jeddah
ismael
shimbun
clermont
dreamworks
nesticus
walkman
custom
chrysler
khấp
rùm
louisville
cyp
dimension
arya
##eberg
##sphere
##mira
##olata
##stream
##rès
suô
arma
1707
opus
738
##ản
##monte
rott
##uệch
cars
##sẽ
##anicus
aye
lada
##tj
miocen
scud
curv
##onto
##melas
859
killip
steatoda
straight
troglohyphantes
wozniak
sylvester
gardiner
oleguer
##pleurus
mena
taiga
discussion
cordata
##catus
dslr
principles
constitution
oshin
706
kaplan
subic
##mot
chionae
##zig
yala
##pana
inger
##ckey
##kong
zyg
##lepus
stip
miki
##lok
saar
##lanthus
##olic
malo
cron
##china
corr
kuznetsov
thàng
mauri
##ểu
##lha
install
khatoco
phengodidae
saakashvili
đựoc
gutierrez
piranha
mitsustar
yakut
campagne
least
##unk
valery
indicus
ning
linguistics
##sculpt
buddha
##hya
dulles
integra
##awan
cavendish
014
koku
minute
dri
đọt
nhieu
##franco
##spar
##redo
milner
stranger
camden
761
highway
asano
tó
##hyla
##iku
##nchus
934
cera
779
##maki
bòng
glycol
cpc
##guttatus
##graf
sande
valentino
cale
962
##front
papill
montero
##emiaceae
686
aran
ino
eum
##ận
##odera
793
salim
sgh
tằn
##voi
##akis
đủi
aguilar
carrefour
lycaenidae
nigricans
astronomy
chávez
tomahawk
weaver
luper
synonym
progressive
wallonie
nicaea
sketch
betulaceae
##atis
##ross
recorded
trành
dọ
alli
##ivka
pea
annales
##hole
denti
kđt
lém
riccardi
tréo
rowan
darlington
amour
##jung
schauer
klm
took
thút
##oua
dickson
nhạ
tana
##veni
pcr
##amon
##llah
vẻn
##ème
luk
saunière
trevis
luteo
aphan
##dung
lite
##philus
##bone
tori
pyo
zy
eno
##wong
pín
##garten
producer
pem
ornith
##âng
##uil
exilis
passer
##aries
prie
granul
raleigh
calophyllaceae
capparis
eclipse
kasparov
novosibirsk
yamashita
basayev
kabuki
palmyra
neustadt
olivetti
balfour
xầm
kodagu
##echus
lụng
mighty
##fir
##bj
leu
##cic
vanilla
canescens
bouchet
aram
hamlet
promise
##recht
klu
pace
battles
allophyl
##tại
gav
##ussi
hogg
joanna
2022
mollusc
##hyun
boxer
strepto
##ầy
horses
sax
764
ssp
holding
##tissima
horizon
##chau
himal
uda
ptychomitri
cudicini
kagoshima
scylla
circuit
rướn
cienco
actress
panamensis
woodgate
chdc
mug
hoplo
dộng
theodora
sunfua
ella
guinée
ola
##achne
breit
osten
formation
##repis
##igerum
sank
##ologia
niko
royale
##với
##hner
dustin
##lmer
##ẫy
##mberg
mateo
valid
daniele
097
996
dragons
##150
##efferia
##gyne
lindenb
komm
erysim
bupleur
cantabria
cunoniaceae
daimler
guadeloupe
mifflin
narathiwat
qủy
shinigami
treasure
##eland
beyonce
sentinel
triaenod
caribê
opéra
erigone
californica
defence
quẫy
laporte
akayev
##stylis
neanderthal
khéng
krupp
rowley
mogul
brutus
noord
đơm
##duk
dẽ
callisto
dubia
##phaea
gilli
##mane
unity
straits
##rite
psm
##lies
bola
##zim
papp
martens
wire
pond
rotund
verdi
bantam
##lama
aristo
rủn
warnst
##ncia
yayla
agrostis
jara
daniela
##hil
##todes
sờn
##akaze
hedge
takao
##tomi
##uren
803
abbiati
bielefeld
cystiscidae
feyenoord
initiative
lycée
vaughn
virút
hendrix
calvert
epilobium
caltech
highlight
visayas
haydn
bulgar
##éo
georgetown
##formis
smoke
acu
giạ
##wart
dima
alber
trôm
##rola
manipur
##rij
draw
pará
##walk
adda
fabroni
##âm
yê
##hyd
mahan
sek
##bayern
856
##reux
##hue
walp
sio
##arl
kirsch
##hali
##ché
##mitr
tora
##smo
experiment
fulva
citizen
##drom
##flora
##tense
toyo
748
lucid
##rton
klet
cypri
##102
pian
creole
mán
salman
hafiz
ardèche
heraclius
kaspersky
vulgaris
phượt
eumenes
gyeongsang
shizuoka
millidge
ludlow
nuột
joplin
karzai
wataya
sawyer
influence
zai
scene
career
thornton
rena
pohlia
loch
lampro
smit
vne
têm
##maz
##chir
samp
##kap
##rew
omer
debilis
buff
solano
jur
foli
##issus
horik
##ograph
##isma
suf
pamir
jardine
##clus
##shino
loè
1688
##wel
boun
cobra
##cilla
engineer
changes
mcnamara
mytob
tethys
freiherr
harriet
leandri
providence
axetic
kunadu
ministry
takumi
karnak
maximianus
836
gymnophthalm
eliza
##costata
tit
##xxx
anpơ
003
1765
niro
salz
tẫn
addison
aryan
soares
belong
regard
##ặp
##inos
sari
pulse
ravi
thorin
##eola
##peri
mỷ
poore
foo
annona
helius
guerre
filip
mariner
karin
curi
purpur
crc
buda
trident
connie
valeriana
cicero
##opteryx
cỏn
##íp
cep
ecb
772
burj
1761
asperula
##raya
##coni
fê
##uloides
##foot
##eya
hyung
yf
noo
##nchengladbach
erie
##chester
taken
##part
chromo
zig
##raptor
##linus
saleh
cnem
reveal
ghẹ
commelina
encyclop
fibonacci
khabarovsk
kwazulu
suárez
trachelipodidae
twilight
volgograd
salisbury
connaraceae
akatsuki
gracilipes
zachary
scandens
tsushima
ashlee
danzig
protoss
judas
fairfield
bromua
holmberg
##nod
agatha
xụp
nuc
jum
##phyt
dalla
cobos
##opidae
muta
strip
soria
##cora
probabl
##retto
pygmaea
##ogyne
##alter
plagio
basso
##jor
lois
flip
##uzu
pelo
##mission
##thm
##ambi
##heimer
zim
##llar
weser
##adin
yung
comm
pieter
##ndate
##iker
##nini
##tya
##aspi
avia
zoologica
tsi
##uense
##share
seba
##erne
tsang
nyu
1640
##oscia
hul
##bani
##rance
akhenaten
dicaprio
ehrenfried
jaramillo
kunađu
splachn
thursday
tymoshenko
kaladze
palencia
sodiro
caserta
stavka
spaeth
parui
phase
##ying
unknown
yassin
circus
umm
bexi
dirty
vid
fanny
##uvi
condor
macao
kage
nitrit
krieg
vasa
colonel
##tab
##sense
##vest
lactic
##heri
##thyreus
##ử
luki
##hain
miu
##etter
winner
toxic
eucer
pvn
ranch
downs
##acanth
##bium
zal
anthocerot
##illos
795
gift
finger
laevi
##chis
##omitrium
##oglossa
##dz
##tzow
##rón
##eul
herod
##kyu
valerie
tenor
2400
simeon
##ovsk
##lange
podl
##euse
cạc
##neo
tuva
bistr
albuquerque
chintamani
menezes
szatmár
veszprém
zodarion
pannonia
pliocen
cardamine
alpinia
rangoon
convex
skipper
varia
hylo
gẩy
whale
punctatus
##ás
##itch
##undi
barrion
loc
##bius
armata
bosmans
1720
cyrtopogon
modul
##itan
seto
mull
mord
debian
lasianthu
##hut
##emba
##lada
tagawa
glyph
gunnar
##nces
##bern
##zumi
aldo
chilensis
##lland
##321
lace
saddle
##chor
uli
##lamin
peyr
amr
antonia
##erie
##nigsberg
palp
##vod
maran
fon
##ục
ête
shou
chuô
gentry
perrin
atomic
##inense
aladdin
boomerang
opostegidae
platystictidae
vinaconex
photpho
gillespie
colossus
hydrocarbon
vểnh
cranmer
leonidas
tobias
damalis
varen
philippinensis
horror
##trac
arachn
##eraclea
socrates
##mycet
remi
eureka
dỏng
frater
pred
neva
vos
bunko
huyê
1453
##òn
perrieri
frisch
puma
##haya
seren
rough
bruchid
ucla
##riensis
lef
ellison
position
##ulina
##beau
tartar
lata
tibet
##niana
##hren
##cate
1024
angle
##bourne
gomph
##alves
leb
folder
hcl
nefer
##gold
cz
##ophthalmus
shit
heyman
medic
##lonia
nizhny
serotonin
trạo
wolverine
cyclanthaceae
vasilevsky
nigrescens
petrovietnam
calhoun
sphex
909
##erno
enough
hajime
legrand
lunga
hymen
chrysopa
educational
##ogan
hiễu
eberhard
##phar
bụp
trệch
inuit
##estre
1642
gibbons
1715
##erland
##780
7917
creation
zon
##uwa
theodoric
kristen
841
heldr
corticari
synth
##zam
constant
##ệt
kona
cathy
colonial
##sohn
##lone
##fol
cnc
gracile
boc
##365
997
colli
burk
nươc
##guro
assembly
expedition
jharkhand
koblenz
majestic
nẫm
obovata
seventeen
cagayan
meyrick
gtgt
gutenberg
needham
picnic
##ratum
##lance
##cles
yp
lothar
twain
pycn
allard
đỏng
##sama
eagles
elements
##mash
berti
punch
grasse
spon
eucera
incerta
klo
mojo
7895
coupet
daun
##uela
##ostylis
jalal
##pore
khal
ochro
ilo
conquest
krishnaraj
##rry
prospect
##eves
##phidiidae
##jong
##răng
##ilius
##trophon
soạng
sku
poul
##áp
seas
darling
##della
gucci
croizat
dicliptera
goebbels
lagodenko
príncipe
qualcomm
srivijaya
tutankhamun
deschamps
supplement
ðiệp
brennan
krapov
rendle
kessler
becamex
hyperbol
869
collections
mandy
shinee
##ryl
severin
##oit
##food
1471
rufa
mohr
##jovice
japon
kitam
nive
##nation
chey
##themus
brat
##905
##subject
##tonia
##race
kháo
##rme
quer
##tzi
lởn
cine
weir
##szent
hb
mime
##bello
908
##sumi
##adelphus
thunberg
##nnock
##bilis
lugo
##sora
##emen
chuan
pedi
otho
phospho
janir
burr
##06
nâ
maroni
volumes
##liensis
robb
##telli
##eter
ula
aeronautica
gonzalo
hundred
knopf
unplugged
uyghur
breslau
versicolor
bhutto
celeron
kuranyi
scarborough
symplocos
molokai
elymus
heineken
pazini
artmedia
nuevo
uzun
##mbia
riddle
gypsy
picard
gand
spell
kiềng
crassula
mọp
peas
##agra
eichler
milito
chir
minutes
painting
aeolus
##owie
dicr
eastman
guest
roon
##ovii
##những
##bracteata
##ovski
korat
##dag
styles
ages
dhaka
armani
monarch
pique
miura
lucifer
##èn
fisk
##senii
##parma
##rog
itv
##logic
chakri
##chard
colomb
##obry
##pole
barron
rodin
trùy
##igli
##ẩ
shab
cym
lehm
voan
gree
##gov
022
linga
leto
adesmia
affleck
anobiidae
antioquia
daughter
doherty
drôme
hargreaves
mcbride
mcpherson
rewrite
catocala
potentilla
ueshiba
godzilla
sylvinet
overview
estrada
stenophylla
nơron
received
cordyl
erectus
fonda
874
7893
##chloris
enix
df
flavius
truncata
##ikos
##emann
florian
rueda
xeon
##idine
arista
photphat
galen
##egra
carrera
trichoste
androgen
chico
##nobu
karu
brunel
##blat
bains
##sato
rank
aps
ares
##ós
##105
oliva
serve
talking
##vena
##gum
malus
kubo
##hold
dominik
##rial
##auer
##qing
mellon
nikon
kiwi
mj
sira
##reb
phanom
##cơ
1427
##omorph
##micro
abo
castillej
pensacola
ribôxôm
shogakukan
surabaya
fragilis
versace
safety
bremerton
underwood
cleome
fritsch
fagaceae
uf
thalass
##iques
justinianus
calcium
toác
##akht
elam
##lbert
ischno
vối
hutchinson
dyke
##baud
972
opti
nights
calliostoma
milit
fiss
vk
drago
scots
##fact
venom
karaca
rea
##bbs
ornata
sites
##idonia
balan
696
bòn
willard
sza
kavak
koba
poz
lẹt
ld
##129
kirch
marit
deng
##rmi
orb
grange
voyage
asparagus
fisichella
hemoglobin
palembang
twentie
yerevan
mugabe
sopron
threat
zamiaceae
vientiane
bleach
lancelot
osamu
riemann
euophrys
mantova
sumner
gameshow
biều
##cord
rọt
025
lino
ðốc
##wana
mayor
gunner
ỹ
malin
channing
smash
mido
dw
ow
##loy
957
stricta
delic
snail
##ophyta
1527
olaf
strat
exley
shirak
halictu
##icki
sylv
heterophylla
horner
##mannia
##gumo
##ecus
bash
023
suse
monsters
##nix
veli
garry
##rilla
chosun
ramen
##vica
789
hollandia
gea
uru
mister
coke
##ancy
683
context
slave
yul
bub
scientist
##ostola
question
clad
shut
benzen
kaza
muelleri
term
siege
galla
braunschweig
commodore
irmsch
schischk
sinhanco
supermarine
florentino
triumph
silence
apink
southwest
tarawa
phaya
chennai
batavia
##dde
##mere
legal
ferb
rogerio
looking
bild
trulli
swe
interest
breaking
weapons
##ncing
##vc
jasmine
đì
vevo
argos
##sub
morae
azov
##tepec
1280
bolo
maka
##portsmouth
##cinctus
##zou
##isan
terran
cowell
distinct
pry
rupp
essen
mess
konstantinov
koto
##bner
##eppe
##enau
##laf
pq
chion
##mps
##ukh
1756
##todon
phư
dentata
sgt
reti
phreati
amba
vigna
005
##oia
##ception
trôn
##erax
1088
standards
ià
##ygus
zaw
kiển
squad
clannad
fountain
gimenez
putranjivaceae
rusedski
unilever
bogotá
priscilla
tncs
pilgrim
honorius
##eschi
arkham
##patti
downey
maniche
variegata
scap
ebola
##rena
kuchma
antiochus
##osaur
malabar
michaels
donnell
##croft
##pec
bary
shad
brach
sisters
basra
playing
teenage
sura
metan
brahma
rauh
ghul
skog
trử
cgi
##nand
##site
##zuka
hance
##kku
872
striata
shang
693
weissia
##izi
##rapa
seasons
##ồn
granger
fans
concordia
##ogomphus
##ôxít
##chak
##ìn
maxima
tbs
amami
lone
##vista
2700
##tcn
malur
dakar
##erge
aegea
##bov
##nye
##etis
symph
heng
##ál
magi
interferon
kensington
phelps
astrakhan
londres
megapenthes
mastaba
terrence
corradi
liễm
xperia
aureus
nghịt
cerasti
hurley
##yakov
bride
intef
verdy
toretto
knights
exploration
##trans
guus
licani
minion
nhụi
##moni
834
868
##gran
##dero
lal
##tif
ponce
location
fries
pomp
##ographic
yates
gastropod
##chner
mott
nhẹm
lse
##sung
##riana
lovett
##llet
clemente
brack
nhễ
lyle
fré
khấ
tíu
##ocolea
##genic
##blast
sena
bolbo
roses
albin
shoot
costacurta
drypetes
fải
kimberly
oecophoridae
ruhland
scroll
luteyn
##buri
parvula
showcase
primary
exhibition
chọt
##ritz
nelly
##othele
engelm
pid
soài
sharma
marko
dirac
##jel
calanthe
##ấc
lamy
leben
013
musab
093
##cnem
adr
madam
958
ferro
##146
morillo
kamal
chệ
aneura
##evolutionary
tani
gpu
pennell
##tipula
xum
mik
cí
vãnh
bakeri
chilo
niv
##kichi
##tail
lobo
tsa
##trichia
##epta
##stom
nip
##sén
##ough
##scia
sanguin
canavese
glôcôm
likud
neferirkare
noboru
sennheiser
xerxes
kiribati
parreira
algarve
kolkata
gangwon
ankan
traffic
bernardino
radcl
evo
##quita
instruments
vaz
##ợng
##quier
##rous
jenas
cove
gda
distich
moul
983
sach
##lake
bukit
villers
##135
##vens
bernardi
rugosa
verb
##jos
reco
##kkale
##aleyrod
bỉm
grover
scala
lìn
##calymma
##porn
##nalis
##ecker
##cone
behaviour
sovereign
callirhipi
cruyff
macleay
seidenf
wittelsbach
litsinger
nĩa
panduranga
vittorio
aleksei
orochimaru
caligula
nimitz
built
developer
pershing
powerpoint
picta
olearia
hartford
hagrid
valentinianus
##esmos
giạt
##mud
holden
wagon
tome
banana
bridges
brewer
##shiki
waller
fah
##fida
##singer
gộc
##odus
skinner
##info
thori
##ional
mhc
equ
concord
lutz
##quer
pied
##404
##cagliari
##theo
##rillo
pú
##153
##heart
johanna
hoyo
nabi
##olle
##signatus
##goắc
##meta
hypa
##metal
peach
947
##phlebia
maro
cteni
chak
agf
prun
##vihla
hawkes
sawan
braz
rocha
hayden
##nthicus
##oxys
##ặt
cuspid
columbellidae
fryxell
maastricht
rembrandt
schweinsteiger
stravinsky
sometimes
tjeder
paperback
coupe
orchard
livestock
however
capuron
showroom
mikhailovich
waiting
##ốc
uva
uric
platinum
kurita
diet
others
lore
reigns
mobil
1620
##otha
##stenotarsus
##ienne
limousine
buchner
aleksey
1745
methods
titans
##ceratops
xáp
ries
yenik
trial
fond
##oglio
##klin
##dori
bones
##cau
##tav
saki
##vh
##bill
bij
##awad
##mare
thùa
longicornis
##cano
ðấ
trail
saxe
##endo
pardo
##ías
791
violacea
##meister
altern
anglia
##lston
cyst
hatch
rằn
alur
tsuki
##tk
gage
fulbright
manteuffel
suvorov
fonseca
griswold
ghẽ
arcadia
perắc
wisla
niệp
energi
navajo
##agno
1570
1610
blum
jaap
wassh
sagnol
##ppell
tessa
dichro
##hau
bõm
ươn
##oseris
734
jewel
##erti
sượng
guides
##dja
genetics
rost
##gularis
ether
##puram
##veli
##stall
mers
senga
##blies
css
finding
quadrat
kep
##leben
coo
astrid
##zym
##lope
chalco
##dhana
placid
##mniaceae
circ
balf
chễ
bloch
daigo
chlorophor
sulc
nand
mớm
nf
##wah
carpi
##omin
##kah
##ừng
##girl
tomi
##pang
centris
cheong
chaetodon
fam
họat
##pak
doan
dolich
bitch
arunachal
aglaia
artiodactyla
debrecen
gallagher
komnenos
nikephoros
vietravel
anything
sandwith
phơrăng
beagle
hirashima
anthology
aachen
extended
nunez
reprinted
melinda
poison
dicranot
reilly
elongatus
khlong
lose
cuvier
##coli
rouen
##fid
nhuốc
norm
##urensis
trim
746
herbie
##onym
hashi
##inda
asch
caspian
bree
laze
##calia
##version
kanna
##estro
lisso
##eem
makin
item
munda
##indra
dew
nell
cephalozi
##ardia
judea
ivo
dunne
##ovia
amc
##hụp
circum
##dactyla
montes
fuel
##lien
##lby
##horst
##puncta
##sephus
soga
thuong
##sand
##avan
odo
aang
##leo
##888
ballard
martial
commiphora
cupressaceae
huxley
kathmandu
krypton
shueisha
vức
lellinger
kaliningrad
winterfell
malouda
navibank
peggy
courbet
jayavarman
marseul
resolution
annonaceae
icann
miyamoto
tuvalu
kampala
velasco
charley
sebastien
bolero
polygonum
ebmer
insight
##eské
transvers
favalli
orissa
hug
##nota
mính
##tiền
lbf
aegus
pasta
vcci
naru
beno
engineers
##hcm
##ruz
corpus
pius
nhat
##488
##ographical
##mou
larson
welles
marais
turri
982
dolby
indies
hispida
ampli
##rangi
kháu
##blackburn
##rator
##ouche
dias
##thorn
##prop
kaval
mond
##lare
carbohydrate
##ining
##atrix
coel
guen
clarinet
seng
đù
##ancourt
xè
##ebr
##để
jeb
refer
olivell
1689
limonia
1407
942
##neuron
arad
cạ
694
1066
commons
jh
##gund
intro
##dela
##cida
ceropegi
cytokine
endangered
eulophia
hendricks
kodensky
mesopotamia
pandiani
ludendorff
demosthenes
schengen
meinander
salamander
burkart
melanesia
maluku
villepin
woodrow
arsiker
darkness
machaeri
aptech
feder
messiah
radiohead
nhột
noct
allied
##rzburg
nguýt
bette
##ispina
iod
##ssou
cinerea
##vka
sola
belmont
suh
##cephalum
writings
##taxis
julianus
vởn
tetragon
sund
mint
##door
witte
##source
taurus
gyre
##ún
rye
lek
teacher
annam
006
liza
1567
speck
taras
suit
pauline
tsuru
hookeria
##haupt
##tkey
##rhinus
ngoã
feature
nl
##gner
##oru
paton
hđ
ethel
klatt
##laine
ayun
koda
xim
##mbra
nb
##riot
luxemburg
1250
##mov
atlântic
baotixita
mcgregor
micronoctuidae
monferrato
tocantins
bernanke
milimét
senderos
elijah
tacitus
kerrigan
cavalier
vpbank
podolski
gangnam
lyman
hirta
goulding
lọai
afrika
##bk
evening
##ixalus
##odium
floor
sã
##ophor
##ignon
emb
nepalensis
clash
##nua
##sola
pgp
wm
clavi
facts
##jir
##rans
sahel
##sdorff
##êu
biol
arp
##anka
gods
##hini
photograph
porte
delf
aks
meer
letterman
aristide
953
##111
##hout
gallo
killing
kanak
yume
gadd
pfa
moira
956
rok
##omba
ingen
cedric
levin
yui
burch
##category
boulevard
poincaré
samarkand
westmoreland
yesterday
caillat
illustrations
jatroph
lohmann
##dak
bloomington
shikoku
upload
mertens
nizam
ppm
printing
tôpô
fusion
lecco
husky
##ksa
##urica
vă
medium
pắc
rubik
ikeda
nhoà
michal
##cry
sucre
shh
##verse
gagarin
híp
surat
##sepalum
meier
scaph
yevgeny
tirol
##ờng
pola
grosse
lpg
##canus
##oja
1701
canis
##bran
topic
##hrus
##quist
##303
##andre
##170
##mbach
laure
ngụp
##140
quill
##tirus
ỳ
##kc
aphelandr
jacque
newt
##bagal
đak
hygro
dib
bold
##anova
##anger
##nelle
gagea
ghibli
spur
##epto
sno
argentin
arno
badajoz
canizares
dúm
guevara
hyderabad
karabakh
memories
micrathena
rosemary
tampines
tmncsg
uzbek
etanol
clichy
spacewatch
bazaar
souness
taksin
nazca
femme
xắp
microphone
##rza
cardinal
chặc
rớm
progesterone
##toshi
##fold
##arov
marti
gabrielle
baix
trinita
geremi
##raco
phyl
farr
monkey
thât
manor
loma
##robo
busch
##done
baud
honshu
pars
##luy
0511
##uchen
1683
ego
##flor
phuc
##pass
ayu
##kw
occidental
load
nationale
##hashi
##bingen
micron
##strict
##weg
ups
arturo
capill
##serv
mrna
xing
aub
cossack
##ippe
pluri
##zit
##arkalgud
adzharia
campobasso
centurion
iroquois
megapodagrion
noether
northumberland
transilvania
hejaz
bastille
nbsp
archaeology
hesperiidae
reginald
cryptantha
capture
malthin
celesti
glaphyridae
cybocephalidae
hollow
ligure
revue
1428
grammar
elaine
jaian
973
##rish
earlie
thiệc
wendl
paradis
jed
##muth
played
lềnh
##ulos
prô
elisa
##301
##dier
ingram
##upa
##438
melanoxanthu
shel
##ilk
##09
tio
963
##teur
breath
##dji
gardneri
zimmer
ollie
ceratostyl
sphen
##poo
##386
##rail
tms
##bahn
##borough
##188
##ggs
tôma
chaos
canto
bót
991
beh
##system
disease
##hiều
##qt
ngọng
success
georgy
novell
##ckie
autumn
benghazi
bonifacio
crocidura
flensburg
helgoland
lennox
neoscona
tuileries
mobiado
vercelli
fedtsch
nightmare
petronas
pipoly
##ôm
##culata
maureen
cephaloziella
banshee
jonah
definition
natalensis
chũi
aspera
xục
huong
pallidus
toshizo
stronti
sherry
thorne
daejeon
odontocer
whitman
bkis
fee
graphics
cyano
##đá
conioptery
ddos
feeling
##vino
##mono
##pithecus
##izing
##occhi
1755
crusader
017
dota
##tà
horton
peg
862
balô
lakes
##tenberg
##leyi
nivea
mittel
dann
clover
iker
##pila
keel
##essus
observ
##ophagus
diary
delt
##kay
farame
militar
ante
gotti
montez
##mw
patella
damn
##mà
angraecum
bojinov
fissurellidae
khartoum
nietzsche
vivaldi
edmilson
andromeda
lizzie
amit
resident
angolensis
ribeiro
commentary
racemosa
bethany
quặp
sengoku
wickham
niagara
##naria
almost
orochi
wife
paxton
cheryl
potro
bandar
badger
leah
##leuca
tiu
zag
bieb
qing
##mét
opuntia
philautus
##458
invest
##shka
##ệp
1521
yenice
kino
##arina
salsa
##ollo
##big
mob
denton
hyps
notioph
hutu
##ilov
060
confusa
##ezza
##alem
##yayla
hut
##unensis
##383
##ikaze
fell
##137
##eja
viridi
##ular
sts
lucian
lean
váo
kron
##omer
mycenae
##oana
whitt
đừ
##hora
##vecchio
##ryx
##caulis
asclepias
extension
hedysarum
jacquou
koehne
nobody
oerlikon
positron
clarendon
jalisco
aerobic
vinalines
belgorod
hiphop
napster
deisler
socotra
kanagawa
##ungs
soundscan
cuspidata
haryana
tenuifolia
purvis
falcata
ulster
tide
catalu
cauchy
mater
irvine
hikari
vasep
mabuchi
rayment
inge
epson
##riol
write
flagell
danser
##tao
đenphin
tẩn
xêsi
sasaki
minus
##ková
chil
##hop
nấn
##ourou
bernd
##ouf
muss
regia
992
jesu
function
##rifolia
##dahl
phài
geki
tav
##oire
simi
##ouk
##môn
amos
kath
798
##fiorentina
##rari
##beek
valerian
calc
chro
##riopus
##sulf
sakurai
daly
riff
##167
zico
##sner
##133
foods
sulla
russel
##roz
##203
1630
marshal
trajan
##suk
##zman
strom
##ezh
##tsev
hanson
##onov
##dock
##thera
pavonia
scelo
represent
llan
atra
challa
##leyman
sheva
##kiewicz
cheval
secur
##ocalycaceae
allegheny
bufonidae
enthusiast
gyllenhal
lepeletier
meridionalis
rokossovsky
uppsala
êkip
struggle
##ulicidae
aeroplane
sacred
wonderful
arập
robredo
##pholcus
bennington
kraft
##ọng
austen
minardi
bibron
javanica
##afi
phryn
cleo
nied
jermaine
casta
muni
dupont
quết
maynard
candela
##sip
habib
gastropods
javi
##demi
avery
farmer
sok
##hesma
ctenit
kadur
pinnat
kolbe
##yani
cooke
noh
lutheran
coppa
reuter
##sahalli
huron
fier
antoni
tuc
##bashi
collet
nitens
pogon
##dura
##lington
##power
parade
microp
paradoxa
malibu
##thesis
##laka
nagato
##quil
ðàn
hayward
lutea
banking
##oderma
wilkins
elect
austerlitz
cisneros
millettia
repulse
tolkien
trujillo
wehrmacht
ðoan
ramirez
sarmatia
diablo
heliconiaceae
cerezo
huesca
constan
moratti
drift
yalta
nhắp
license
heredia
guộc
publius
##daphne
lếch
martelli
klausnitzer
obscurus
squal
monogatari
##veri
horrid
gôm
huygens
##nago
##rachis
narva
atsu
vine
sasso
##vec
tto
lateralis
##amun
geb
lopes
ceri
##grammiti
##rw
yeu
##186
##pix
karam
tala
wav
##iện
wijk
967
necker
sorab
heine
hicks
##aret
haber
aac
torrent
chrono
##gane
##gorod
heck
##pá
jungle
##hv
wend
schwarzer
videos
##gora
shimo
797
juri
##douard
shide
saad
##ostom
almunia
cordillera
dolomedes
dwarf
hormuz
léopold
mackensen
obaydi
svalbard
telipogon
zwingli
moyes
ordovic
whitaker
auxilia
cilicia
botany
poetry
akagi
bund
clements
siamensis
1540
prin
cmc
sze
deuter
chêm
##ophyllus
escal
nkd
eskimo
##khet
inde
gho
jj
tuberculata
cuc
gaulois
silur
gaara
uran
deanna
patin
mere
bosque
##tial
stigmat
##ouri
##dron
storr
verna
hille
puff
dahlst
hire
trey
slater
sibiric
pathet
##loss
eat
##cauda
quito
vw
##edes
hymeno
aquil
##elman
##tant
##manii
##nok
mabel
storey
soren
##elma
##parti
1680
##999
martel
##134
petri
fet
coup
##asembe
##lant
##olli
bulbostyl
kitchen
pump
##hla
##370
adolph
wt
edi
alkmaar
angiopteris
arènes
caracciolo
krasnoyarsk
loxosceles
lozère
naticidae
papilionidae
shoshenq
sneijder
wiltshire
psittac
mulsant
phẩn
hđba
apulia
hydrovat
##ysk
##159
scarabaeidae
places
oizumi
##kota
xia
haruna
kagura
micky
wrong
##flo
berna
lucida
lema
mưng
norma
macon
##rene
premna
arun
hazard
zoro
vafi
##ensky
chlamydia
##ộng
temp
##fat
##byte
kuwa
fé
##kala
tribal
##hanoi
nme
##wind
iri
##pard
gef
chekhov
1285
788
owl
##chini
feb
##boli
priest
actin
##vez
tút
kell
phốtpho
##leurodes
harz
sommer
##vitt
##deri
prome
kochi
arist
ntu
##cies
spd
opposi
##stephanos
juniper
myrmeleon
##chrom
##yanov
welw
##mard
acet
andalucía
arsaces
carnevali
divaricata
jubilo
ratchasima
tirpitz
ziegler
psychology
hmông
taeyeon
magister
schelte
mansfield
braxin
methane
laberge
boulder
tuscany
##erke
yona
sunset
amorpho
nhùng
##398
scler
andreev
##niggr
##cchio
argo
sệ
cant
reut
ozone
pater
##buru
##xp
##cad
fio
952
magneto
rowe
1741
sundar
butch
generic
trơi
crick
##thion
##lano
##ezzo
argyr
đọan
##gaki
##mpel
sochi
##cular
##myia
##169
perse
cephalole
vpn
zhe
vitis
gordo
##260
ww
026
silvan
##scinc
dein
chlorophyt
##bolu
##269
kofu
investment
variation
##pterum
##sfeld
##hydrat
##idos
##kram
##ophanes
azevedo
biogeography
chamaeleonidae
contreras
corylophidae
gronkjaer
khrushchyov
navratilova
ozyptila
sedgwick
sikorsky
vicksburg
westphalia
excavat
heisenberg
filiformis
stevia
airplane
luís
coleophora
lowry
địt
schiffer
##thio
vốc
helmuth
háva
results
plutonium
ribes
kea
luisa
bier
logro
##ópolis
rx
##oort
britt
lantan
paramunn
nhíp
soba
só
ostr
##amensis
##gonus
##bola
dôia
##urga
carole
clemens
##cross
buckley
regi
dalian
snoop
##jus
##illion
bharat
ampelo
##wijk
ending
##ười
##ằm
projects
ntt
nlđo
diem
##voluta
##erae
callo
##brand
dust
##ident
##mayor
##480
##yaki
numbers
##sne
##acca
primo
##rée
krauss
attagen
##156
##ská
##lala
forge
truyên
##bund
##marin
offer
kilis
mađơlen
olomouc
sheraton
sukarno
torvalds
pabst
ratzinger
kotschy
chinook
jpeg
literary
auflage
watergate
fulro
panucci
getting
khục
miz
chẹt
similar
dúng
robustus
anchast
booker
thinking
##astrum
ngưới
formosana
sakda
##inck
prod
pah
pompeii
barba
roar
schaeffer
phylogenetics
##olini
litho
philippi
chuyen
##dó
##rakl
##òi
stamp
##sole
lamarck
foch
lineata
whip
##file
mitsui
hungari
forget
##hammer
micra
##pers
tacoma
anomala
palmeri
ikon
oti
##ophilum
##illé
##ettes
meat
##rli
goto
1450
##ungu
xoạc
##rova
kalo
meir
nct
cré
tră
fps
barros
ops
euph
##wain
##tley
dios
joffre
iata
ariadna
enceladus
molypden
stauffenberg
tegenaria
wilczek
libertadores
deeleman
dunkirk
syngonanth
gloucestershire
editorial
densiflora
macroglossum
notodontidae
blonde
thrash
barrymore
pseudopoda
melville
lauenburg
coastal
zafi
##uzzi
oăm
intra
quôc
phét
vặc
tierra
hattori
options
##landia
##cello
##áu
1368
##holt
ngỗi
https
bươm
##gnan
##ilson
glandulosa
austral
##elius
demand
hpv
alnus
kenichi
sụa
negi
carles
##owa
cryphae
false
celle
orta
##adh
##gada
zeyh
gcc
##ippus
##tonii
##zma
mri
ulan
botsch
##raba
supa
##laco
##oyo
angul
mele
##veen
959
grigory
##kwa
sorin
bsd
cef
madara
onco
becca
998
prayer
lantana
agab
hassl
##uốn
##mki
##toxin
##riola
##online
obes
fleur
941
forests
bruchi
fontainebleau
gudenzi
rorschach
giancarlo
aulono
mussaend
bagdad
kawaguchi
##valle
nervosa
stafford
terminator
eragon
natsume
obaf
shinoda
armour
subspecies
anemone
vaux
chấy
##liga
eerst
mêtric
amazonas
germanicus
geneve
maroon
##cereus
thionville
è
isil
oled
landing
collar
wants
malm
##369
##ape
867
##pô
##brow
##games
gat
##riel
##vana
aoi
##zat
##cheir
weinberg
##grand
dijk
giong
##201
##lift
1603
##ệnh
##evna
reign
##vere
##actis
officer
caroten
abra
veda
##haven
twins
##gnatha
096
1536
khảy
##pone
rặn
cebrio
##risto
andronikos
catanzaro
everybody
galápagos
mcfadden
purpurascens
sarayoot
duisburg
albirex
nicôn
firewall
borealis
dornier
rotundifolia
aethio
tarenna
##cque
ursula
important
biographie
undulata
quintana
galapagos
daisuke
##zada
carrollton
trét
##otricha
tuếch
khaled
bashar
##guel
##agnol
bosser
parad
cocos
breda
##yah
matrix
lippia
maris
burnett
crush
matsui
patent
thoán
tavi
behr
xìu
##nicki
##85780
##sava
##wed
plat
kola
cosmos
##chio
remy
crusade
##senberg
bíp
##tich
poole
afta
carry
##iken
##eld
domini
ornat
goh
##gier
964
obtusa
##hoven
vasil
arbo
littor
castanea
##bô
bish
ezekiel
katyusha
khomeini
shinkansen
skywalker
zingiber
goliath
nicholls
northeast
##thalamus
hobart
copyright
kaunas
galilee
chadwick
livonia
polymerase
consumer
ume
salins
lecter
libby
sienna
limburg
mandelson
pill
ruhr
bergama
superstar
caffeine
zedd
lynne
automatic
camargo
happen
usagi
rowland
pleistocene
teuton
reality
kula
motif
patagonia
sém
havard
kalk
008
nikolayev
##ắn
rambur
ỉm
##logy
##retta
##adze
reviews
tanner
##isches
coop
##bud
##ref
biel
month
##opetalum
deutsch
phiê
div
##08
glei
falso
##sema
##ksip
hadi
alder
##ubat
ramona
miku
##naz
laval
##wani
##bf
nawa
enterprises
atomari
emp
##ebí
kral
##dao
arcto
##quan
macedon
##math
balo
##mbensis
golan
cybocephal
1710
cycl
asparagaceae
callaghan
habronattus
mckinley
timbaland
wessex
bedouin
heracles
rupicola
collector
srinivaspur
galeotti
jeolla
evangel
considered
seiy
pulau
defeat
hobbs
expert
wcw
ryder
##ledge
##pappus
pringlei
##pah
gordie
bụm
##erl
##ulli
nani
meaning
admin
marquis
perspectives
##mount
phau
sully
##làm
bataan
cargo
augusto
##pilus
barna
weston
eger
##ẩy
chihiro
panic
sadie
##hund
latium
##509
gaya
isles
ngươn
##palle
diamonds
sumi
alden
bayes
maple
broch
occ
##nec
##arioides
walckenaer
arco
009
##linda
lx
##ahin
lipa
mead
karo
nanda
##nzano
licht
coelo
##market
activision
cassidy
individual
kiatisak
meredith
neferefre
peugeot
pueblo
yingluck
flavonoid
kellogg
scarbrough
crimson
ithaca
dolores
heathrow
hydrocacbon
hếch
fujimori
logarit
aspar
êđê
crassifolia
boateng
trui
pinhey
yusuke
##cua
dèm
tngt
gameplay
cabot
tirana
judge
karlov
nap
eurya
muscat
poet
ganga
cortez
philipines
##junct
1643
kalli
krem
tược
centaur
ravel
condé
##pada
goro
rutil
##gale
chaeto
##home
fork
##atica
graec
ule
##bona
samson
##spinosa
spies
fade
secund
nobilis
##colle
element
##montana
daphn
drink
##pb
mahon
sq
crew
holi
##eel
panch
##lme
platt
simoni
beard
##cip
##laz
globul
shao
##308
programme
madre
aten
hildebrand
blitzkrieg
boyacá
castiglione
cellulose
coleophoridae
darmstadt
derfflinger
flinders
hispaniola
jiménez
kiefer
magdeburg
melanthiaceae
rundstedt
sisyrinch
vyacheslav
najaf
ðỉnh
siebold
sistine
worthington
arisaem
hainanensis
further
argyrodes
frings
guianensis
yahiko
lauraceae
khcn
##ibe
jagger
become
##nthus
##xton
ngă
paige
investigation
glover
dwyer
naha
ezra
produced
##yeri
naudin
isoet
##lug
niêu
##sami
arpa
linc
nac
ambro
kfc
##elus
ecw
acropora
##cule
dress
bombers
qna
moson
kindle
##kazu
holocen
ichthyo
##ahiye
furc
##vá
psammo
neso
054
divis
##eanum
walters
barrie
guk
##ppu
chrysolin
fulvi
##ứng
##uồng
##ensi
##bua
donaldson
##anca
seen
pasteel
krug
radek
##uwe
##qq
##yin
btv
crt
##229
##icolle
sabha
##shir
millot
arra
##anin
lycos
##inal
alumin
1690
##archa
##rios
##feng
columne
##hne
puk
nhiêm
truncat
vital
hamad
bonus
hla
maw
seb
##459
compress
##195
##neus
worcester
arcangeli
bernadette
bẫm
calgary
encounter
greifswald
gryffindor
lathyrus
orectochil
palustris
religious
caballero
elsevier
northwestern
continue
polyplectro
burgess
kelsey
amiăng
gloster
fremont
fisheries
kenyon
someone
formic
feu
giăm
flabell
renato
tễnh
##statin
##zhou
fabiano
suneo
pauleta
##pont
verbena
##idze
danae
leucodont
##mmhg
straw
lise
chành
##tomum
vue
mót
polli
gardenia
##koff
curry
materials
##spel
1572
##dok
##306
##seni
maximum
basalis
##rigid
bải
##iếc
austr
martyn
##éré
nemopter
1709
##striatus
##roughton
orbital
1697
garr
vere
antar
sìn
tiber
053
hahnia
minister
asan
##czy
838
regu
argentea
ambo
dorn
prism
##ingeri
kurata
waco
tarsus
flak
##yuan
##rista
##bble
cib
##nach
sita
##lux
zell
wada
alekhine
bhumibol
lamponidae
ludwigslust
pritchard
prudential
queiroz
schljakov
supreme
motonari
centrino
ruellia
arnaud
koidz
interface
muslim
qubit
wallenberg
otaku
members
gros
pollard
984
##uvre
lưa
eph
kreis
spicata
##ecilia
critics
##martin
diseases
pride
nguô
##mik
catp
popul
tatiana
##huis
##arrow
##bby
quàn
jaro
dusty
margo
gregorio
neglecta
1350
magdalene
##lage
plains
defender
tempo
thaler
yori
maulik
jive
therm
##lq
dickens
paint
##boa
##tje
oxygen
moral
##006
michelin
##truc
mormon
yorke
rez
##rsch
bleu
##quit
salm
##coides
##leta
1714
katz
parana
##agni
blanca
039
dominican
chick
hippolyte
ilyich
moriarty
palpatine
vishnu
zayed
calendar
manuscript
territory
domenico
griseo
dorothea
piemonte
appear
hashimoto
pasadena
##lex
nigripes
tenebrionidae
request
draft
##205
numidia
nguậy
1258
shelley
giẽ
##show
dáo
savona
##gô
colony
jstor
troms
tweed
1662
menken
kemal
borges
kashi
rees
mishima
voices
pauper
magadi
1520
##dalis
reuben
##năm
lèng
mbps
##erberg
gaming
1204
hungaria
magnifica
##mento
##myrtus
##sphaera
##sago
##zt
canio
##dau
lila
##activ
##lecce
saf
nazir
##oniscidae
##voir
##ipi
##tras
strass
##lamp
grise
##uq
##edu
##istipula
kanda
vet
##tatus
sure
##guet
fove
pts
helios
fasci
##eanu
##liff
bless
##idor
rede
cio
bells
aeol
##450
luyê
minato
cade
karata
lỏn
##imba
bif
algebra
attenuata
narrative
sanctuary
tanystylum
telenovela
verizon
warplanes
wiesbaden
ladoga
fabrizio
explain
hendrik
reggae
lucarelli
hiroyuki
bulldog
concinna
liberator
comeback
nepenthes
symphyo
sakles
fuego
barbuda
gunston
pretoria
pulcher
whitehead
##chas
sargent
backup
đúa
ibá
hẩm
nw
ochr
##elaphus
yuji
sopra
vittata
##inata
huan
##meli
##gut
chichi
dere
carly
xuê
mineral
##hime
obe
observer
thanatus
warming
đòng
heer
##607
rabbi
spiders
persi
cours
altis
deve
schaff
##wol
##owii
##loe
krist
ive
##094
campto
coong
##pini
##pelta
977
balke
##shio
ambi
sạ
##deh
ecm
##center
astr
barbus
##ringer
##ùng
calyptr
pastor
nephel
beli
greta
##folio
writer
##vong
##403
ej
##illas
chibi
994
##anthoides
yorker
cinderella
kierkegaard
thẹo
vodafone
mayonnaise
mogilev
ipswich
membran
aeschynanth
pinochet
pacheco
rourke
gravity
sideriti
hydroporus
molise
callicarpa
aragones
wildcat
prosopl
epirus
piceno
gunther
mucron
1560
rescue
baumann
busby
hadrian
ángel
adamski
dominion
pew
mexicanus
ape
dab
##nesi
##wand
zeeland
yanagi
marley
##roche
##rupt
##grass
jain
hark
##enor
joong
zirconi
homali
means
##207
##moor
romani
olav
xộ
##eut
toyama
auro
##isson
phoenic
##inoides
lusitan
macra
dòn
##lore
1672
018
nanno
##lish
comet
modest
heil
##ubin
entodon
bada
wally
koca
##nefer
##zinger
chằn
limnephil
##oense
rhaphidostegi
caesalpinia
combination
dunkerque
executive
flemish
gwyneth
xiphocentron
gypsophila
wallachia
véctơ
sebastián
whisper
galloway
millwall
kunigal
mastercard
junction
arnhem
kimmins
width
kedah
beattie
marcellus
trẹo
blom
feeding
beacon
sorensen
weibo
arles
eben
##awar
stadt
nevis
okita
diouf
barrera
madura
allier
##oloma
landau
mni
##shkin
961
ako
agong
sacchar
##unku
krivo
##ểm
koji
gymnogramm
##hachi
mandi
kach
##orda
##dava
##geschichte
##kri
cray
parap
##icaule
turan
venez
cyclops
truc
hể
consulta
lodi
##quis
##ifica
056
namur
##xie
viec
béc
gira
##dactyl
##zell
##lent
##ival
nicki
raider
thermo
##iuscula
##iễu
lito
##ndon
bront
##data
##ukhov
doria
convert
eren
almería
chểnh
cypraeidae
ephesus
leclerc
lysimachia
mandevilla
manetho
montmartre
murmansk
lonicera
edmonton
tornado
huelva
capitata
sampras
yakubu
maritima
hilaire
preu
bjorn
hosakot
nagara
sichuan
degeneres
warhol
chenopodium
missile
1580
maksim
zoster
aubé
lst
##ắng
hamm
gail
saitama
fasciatus
##fract
fist
iba
venkov
tenella
taeniophyllu
##660
reaper
satu
actors
narita
##777
##uzzo
dall
palisa
bord
sandal
changed
carinata
notox
##nops
##anche
##spir
olibr
##houn
arz
##concise
##fontaine
##kula
bho
posen
##139
parrot
spp
đượ
072
maza
cil
##nulata
##disc
##prom
##kuru
maly
harmand
##157
felicia
zane
hoác
erp
##eep
saving
sequence
ovalis
##esque
##rbo
gregg
anwar
##yoko
##ql
kournikova
portugal
shinjuku
shiseido
sporobolus
usitc
coccoloba
suggest
adrien
olmert
pterostylis
calderón
hêluy
oryol
antivirus
balzac
degree
chuyết
woodbury
bunting
xaviê
garuda
grampus
jurine
hyperion
marburg
deacon
chlb
umts
solution
##jd
guys
asuka
sacchi
nicotine
nicolson
havre
pirata
moóc
caravan
favorite
papuana
##mall
##115
##kens
##ures
##lobata
maybe
1645
##onville
kass
##rière
meu
##lberg
ceau
##trin
ueno
##gyrus
suzy
neotropical
kayak
796
thụng
durant
##itans
phiêng
##icuspis
lineage
posh
merit
##cheng
fujio
pech
##drome
032
palazzo
kidd
##kastel
##isetum
habr
patrice
gravi
thich
buren
cpa
ink
isu
erythrina
dalea
fren
##oir
wr
mure
spitz
osp
##nao
##nland
##toon
##yris
luci
agricultural
apataniidae
fubuki
indomitable
intermedius
netflix
oristano
switzerland
ornithogal
méneville
background
darfur
dolomit
bofors
etienne
rukia
cluj
vladimirovich
tirtha
quị
genome
##dley
cosmic
barbata
arane
turtle
##antia
##athur
##lichen
sears
spear
bloody
garner
scabra
##chila
foley
myco
humeralis
ancic
##etin
##jit
1670
dolphin
turks
danilo
##ploca
##ostachyum
caspar
##zá
##rur
##jur
##itas
##chaeta
##311
bayan
plesiosaur
kitts
bric
##pped
##guy
planetar
##ague
lampr
leucochrys
##eci
fuchs
##elsen
##free
gras
toxo
tse
##grave
reng
949
allie
irc
babylonia
cassia
went
##kani
secrets
phướn
##ắt
##ồm
selva
043
##kken
##vella
1615
sabu
##yaku
sulfur
voc
##feo
avicii
bessarabia
hernández
huddersfield
ostrogoth
riviera
shrewsbury
sázavou
trafalgar
zanthoxylum
azarenka
consolidated
heggadadevan
nathalie
pelegrin
pagasa
bnv
pungens
costaricensis
harlem
gosling
dogg
gospel
gunung
subaru
genista
nđt
yuuri
euclide
aretha
juliette
##yeol
##naeus
dendrophtho
androsace
firth
kratz
turkmen
tẹc
##hata
hleb
##kerman
benji
charter
dioctria
##chil
joseon
curvi
hoyt
byt
##alb
hajj
##ớn
vanity
foe
sloane
brunnea
mammillari
##lation
xylotr
##enic
dray
aegis
##codes
kj
1590
sosa
anatoli
##ressa
##gf
deir
##ulare
phalacr
gerber
##foret
cosmosom
lands
vote
bida
##elfman
aulacophor
sfc
alkan
dorado
xùm
naba
chivu
basile
bantu
##mier
qué
sensu
##rgis
closer
dietr
##nap
##klar
oita
qin
bulb
pug
##ermo
##ocaulon
##pres
blah
chew
##224
##child
ux
##3000
989
lions
ewan
##ôi
##hê
omi
ngoe
fabri
osborn
##ạn
mami
amphinectidae
cristóbal
edicions
foucault
fundamental
gladiator
houllier
shibuya
thessaloniki
citigroup
madhugiri
gilmour
wilfred
micheal
pétain
osgood
japonicus
slogan
nutans
atsushi
kippur
gurevich
máo
gazette
interscope
sweden
pilosella
funaria
cordifolia
goldstein
rival
##iểm
acrobat
jie
1703
##ndur
tier
falling
051
acosta
##heit
nsw
amu
carta
tarim
crack
linaceae
speg
##taba
ôxit
##onema
lacon
húi
##zhen
kuroda
araceae
1653
few
charon
bỉu
masha
zika
##agu
rhizo
balansae
tune
poro
##468
##peltis
petal
##urid
##389
##cyclo
brenner
##tres
faa
##patens
borough
##beat
045
##đó
triangul
else
traditional
##evsk
kaen
##zeli
##guensis
corsica
paulson
##266
##chlora
anemia
##arti
mutant
ally
include
##gung
weapon
details
##sphaer
##mee
fedorov
1530
##lopterygidae
advocaat
crataegus
ecstasy
kimberley
rondeletia
vinapco
winslet
eustala
torpedo
cádiz
vatutin
sabrina
sahure
lindsey
musume
aetius
blackpool
bukhara
ðăng
ghazi
virgata
vicky
ouest
indochine
aleurodic
freetown
louisa
rười
anselm
melvin
espinosa
##yos
hanssen
##ển
grev
##iferus
radical
gyrinu
##jat
crop
grossh
hubbard
##scope
yol
elba
##305
jacobi
##liche
dũa
nhỡn
avian
staten
philosophica
mccall
canthon
hayley
##680
desm
arias
1442
##184
##ovac
hala
##890
hagi
zem
gmc
##anj
##ponia
##alvania
1744
##jae
makes
##araja
thoan
sokolov
korth
##crat
##osauridae
##kita
##mense
##anc
##ised
nicotin
plac
battambang
doolittle
harpsichord
katipunan
pendragon
somebody
steyermarkii
wilberforce
warfarin
yaginuma
lotononis
mildbr
glacier
groningen
orinoco
amateur
petrograd
paypal
thonglao
keita
yakuza
josip
stepanek
gekko
hyperoli
##isme
##rhachis
titanium
##bria
leia
rolex
varan
rockstar
##385
##utz
##phlebium
##pio
pirates
frans
##apoder
##khu
spars
##osomus
##ulis
rsa
##alle
##scan
eisen
hoè
canô
dorr
mathew
sabina
laws
koller
##cala
##sri
fulvo
##alda
##anthaceae
cassie
apc
1625
epo
miro
##lema
##360
tomoe
##othecium
saints
macma
##zaragoza
##accio
##này
ferris
medan
yuu
##eny
##130
attu
##louse
##rzy
amiet
1582
##meer
micranth
nomad
farc
##ieux
chet
petite
##fle
malle
mines
adak
##rto
##như
luch
miwa
publisher
monument
noda
##fix
benq
nef
elie
##igliano
##bela
##amid
tuk
##hant
chef
anatomy
aphonopelma
corduliidae
corvette
ensemble
mauritania
miltochrista
mixtape
slytherin
tagalog
trochosa
coulthard
percival
pamplona
regensburg
bournemouth
sassari
vochysiaceae
consortium
dauphin
macquarie
cluster
gambit
coal
giéc
dejean
restore
##azione
bina
ornatus
moussa
##onie
micah
sxh
eriksen
ashe
##dek
brause
ragusa
##geo
nok
ngoằng
fuscus
rhys
ðống
pulchr
producers
cassin
snakes
##uden
danger
cheung
dodd
##ùi
shells
##arta
##arbeit
vms
bux
vạy
laxa
nfc
weight
##irs
arid
##spora
amt
##odora
##rten
##ombe
pek
nz
##taw
hydroxyl
##chart
vios
##orellaceae
##enkov
boto
lemur
atb
##usia
bsc
omsk
##llur
pelli
cùa
##bber
figure
ldp
hilari
##word
citric
xian
##ulidae
##auld
tvn
notho
virtu
##punctatum
##roff
matu
risc
##kp
thym
thauma
steen
collie
scarabae
glaphyr
hawai
governor
phd
##wetenschappelijk
athanase
citadel
gdđh
idoteidae
lovato
nussbaum
pribaltic
vaucluse
weberbaueri
luton
newspaper
partizan
guettarda
smicri
susilo
firmware
narvik
azores
simulans
walcott
telephone
solís
mediterranean
hmong
tcvn
sibley
stannis
summers
marmara
##446
khoằm
giậu
spock
##zki
orenburg
##vri
willow
featured
released
petrovich
ambon
opistho
quày
##olf
hideo
##istes
stasi
buffett
vuitton
sphinx
lindberg
semenov
##leur
chò
susa
yugi
synap
##ío
##enis
winx
##ellii
column
##beth
schlei
blaze
##144
bđn
ammo
boliviana
##wha
##istis
##volu
##rota
##obasis
pato
##usse
brecht
kcal
##date
anthemis
##luigi
candid
lover
chìu
hanuman
cork
jiri
serp
remot
cleve
##brug
abram
nassari
ấ
scholl
grub
gorg
##ygan
usaf
##tsuna
nakata
##ifu
delphin
ligo
##rupa
meme
jacket
##lăng
assis
##eser
##550
##rrhynchi
verruc
##ndria
kyrgyz
chelyabinsk
cuneata
heliotropium
inermis
metazygia
mortimer
northumbria
pashtun
phlomis
ponomarenko
myself
radcliffe
burmanniaceae
chalabi
deadpool
ramallah
lecomte
conyza
idiops
fusinus
dubois
sundance
##osauria
scooby
keating
goodwin
bridson
svhouse
ferri
edouard
##lod
dolce
grip
crewe
##illata
hype
rankings
lazarus
nasr
mcco
##ladi
told
##lasia
##shige
metcalfe
nú
carib
##femorat
apostol
oshima
mandalay
ado
##334
##books
dsc
pipe
##argus
##itos
alaca
owens
terebra
rios
diogo
ðôi
##rgo
##leman
##labis
##weed
##dma
sloan
##mylus
roof
##kreuz
hate
karolin
##128
mmc
transit
naver
tibetan
yoshio
##danur
artem
##clin
##icia
##ange
cephal
##otic
##load
yoshiki
npc
edm
##cladium
##ewa
ital
##ucu
olimpi
argia
xốn
dactylo
carat
##633
huai
##etorum
##icon
##oult
bondar
prussia
##998
##stratus
correa
##erva
chien
##vào
device
geis
##ormo
esen
nectandr
idris
cure
##setsu
municipal
polycentrop
castelnuovo
fruticosa
kendrick
langrisser
mentuhotep
méquignon
prôtêin
streisand
ullrich
creatures
knew
mohamad
purpose
selangor
thunderbolt
##ẹc
cruchot
bagration
castellón
integrifolia
storage
quờ
##koro
automol
yunnan
armadillidiidae
kirsten
wyler
halim
ashanti
angusta
dijon
arauca
pascoe
gijon
eris
##collis
usaid
levski
hummel
scrum
##seta
montagne
alti
morg
abac
##monia
teatro
##rar
##varman
valdez
thượt
##cense
glock
##eoides
scientists
miyagi
grandifolia
##nks
##glin
##nayakan
serpentin
spf
##319
galba
mattos
klim
kran
oligocen
##ắm
peel
055
ochi
lữa
bolivian
993
convention
##keeper
cucu
seat
##llana
destroyer
##idur
wiens
##938
##biana
##355
xín
renard
harm
##ekli
fascicul
1627
morgana
chuong
##ilic
##train
singa
##mery
##444
##594
##wadi
psyche
##bruck
1623
dunal
##itor
rađa
##trigona
chaves
##udan
avalon
048
##lfi
##schaft
988
##wirtschaft
giộp
glorious
hobbes
mmorpg
mujahideen
rhagonych
rusalka
terrestrial
kingsolver
philharmonic
detective
uesugi
tillyard
cacbua
auriculata
cleomenes
fellow
michalak
cerithiidae
poisson
ayumi
charliz
euonym
phăngtin
ramón
miyako
masako
fujiko
##alpa
nagumo
breeding
buz
connell
trĩnh
sartre
atlant
giup
tempest
##gaya
ubon
##ngjin
macropod
##fusa
##114
centr
hér
##zano
umbr
stepan
##dey
hênh
gesellschaft
##etica
apod
margot
bhu
jacobson
wma
##220
edson
##cnemis
argus
odor
fung
##neburg
##336
085
##centra
brahe
##ẩn
##ợc
cryo
rive
stylo
##rling
khalil
##scape
hirsut
cunn
carpet
mandel
mizut
fallen
##clar
arabic
##126
##guay
##ipper
bonpl
xáng
##guine
ackerman
melanin
##368
##narba
##rdin
père
pellegr
malaxi
luộ
##jai
crivelli
deluxe
dollfus
kussakin
middlesex
pheromone
tuesday
leavenworth
pliny
xoẹt
thoắng
khướt
hunsr
kansai
hóp
khều
barbosa
loss
unique
cattleya
amazonica
##myr
morava
bullet
cler
##ấu
hpa
khor
dominicana
kiso
venusta
aubl
konev
##ichthy
ldl
kôn
eskov
zap
wax
##ophryne
1288
bâu
cavite
kapo
livre
##wire
libre
##tomus
##brun
agua
##giờ
##ẹp
sieg
##hoo
##kino
##oban
jord
croft
flaccid
rail
##249
spade
##etsky
stag
##nomia
regal
pili
shinto
##fici
##155
hiko
komarov
##rdy
##dim
##tiva
##356
##307
integr
##pilosa
061
1698
afonso
belorussia
bjorkman
empordà
gnaphosidae
kowalski
micropterigidae
sesshoumaru
sissoko
villanueva
zwaluwenburg
segeberg
garrison
malvaceae
harbour
wiehler
frodin
phosphoryl
diachenko
flavipes
##unov
amabilis
romulus
geometry
rumex
giốc
fosberg
betta
faune
iptv
##minh
zub
hib
blackwood
cheshire
palmas
hirtella
##indravarman
##mycin
aruba
##even
jacksonville
##inosa
##istria
hyal
sensor
vlog
cristo
hani
prostrat
##spica
mls
1609
##guard
judd
ornitho
shear
achillea
##series
kinder
##erer
semen
vase
plot
##fj
##deok
trươc
##ikan
1736
arabica
1180
##cacbon
##erit
##orhiza
##lash
##bali
kuo
##codon
radian
dolls
##idas
platini
bta
1729
##ivan
047
##esma
eber
##turi
seram
isan
plas
##phot
##sig
tect
##striata
atri
cdo
katana
##jes
##shah
bertha
clue
schwerin
##iệc
##tzky
##hotep
phymat
##ví
fir
##crypt
cocain
caussols
hodgkin
lonchocarpus
mihajlovic
rehhagel
sarrebourg
tacchinardi
ukiyo
prometheus
albatros
springsteen
smooth
viduka
municipality
nouveau
sugiyama
landscape
krebs
bellmare
subtitle
akademi
besleri
geological
galiano
fedex
adware
singularis
judah
##worthy
collaris
novj
gerry
hawthorne
keiko
mima
webmaster
rfid
##lten
obliqua
begins
bụa
nils
mery
hyeon
burm
##sant
##174
##uruve
arslan
##macula
yumi
azure
guad
plugin
schistochil
1754
##ctic
##256
##uxi
##phaga
lahn
cela
axis
ếm
092
coryph
schul
hansa
paola
##dip
striatus
##ogenes
##ood
1127
##chlaena
jad
##chun
##olon
myrt
centauri
ankh
##igma
apl
shuri
neko
rif
##éné
oem
havel
##laria
##bacter
063
lử
izu
##131
##sett
##folium
##dien
dứ
##reli
##vington
nld
myristica
albelda
commonwealth
echeveria
foxconn
frosinone
meurthe
nalchik
norwegian
quidditch
sabbath
schlegel
taczanowski
temasek
turnbull
celebration
coccinea
corrèze
percheron
pursuit
palgrave
hypercomp
bowyer
frozen
submarine
widow
pallens
elead
##trachelu
winnie
recovery
podocarpus
dunbar
boyce
gracie
##platz
blakely
champaign
##hanapur
hĩ
##dola
##ental
iku
vault
##neck
rhipidi
##ratia
atti
lizard
1460
##theim
##pyeong
brum
027
sền
tở
thysano
##odontidae
lulu
fuga
##xtơ
carlson
macron
##mastix
sema
mek
035
ngàm
##bđ
bundes
golo
##carya
soros
##atic
##saburo
idg
mecha
##apuram
bruni
tripl
irs
pentagon
servo
beri
##uân
leucan
##ữa
##đến
##pica
##though
deck
3200
inland
rune
ngợ
##édi
##phydrus
##ozoa
strandi
pdp
##opoulos
potts
1598
kremli
swin
enid
##rlitz
beckenbauer
beowulf
paltrow
schnyder
seaprodex
tnxp
candace
burkill
decatur
pesaro
sherff
caritas
buriram
harcourt
eisner
brongn
megatron
calamocera
parmalat
vogt
##298
zelda
starship
higgs
knorr
sdđ
septem
funny
1717
interior
vằm
aytonia
transformers
dude
##eyev
##ssie
patterns
chechen
##iform
tribe
coelogyn
aphthona
costata
métro
##effer
pontus
##prion
heterocer
bohol
vara
##vola
swartzia
shadows
brooker
##nello
scotty
kơ
aji
spiro
##omera
##fried
2800
urdu
demirci
alfie
##uýt
maurya
graphic
impr
haha
##jian
fanta
varna
jem
##haka
##foliata
siphon
##southampton
##livorno
##font
mikey
fleury
##276
neuron
##176
arabian
yahya
##lomys
##coryne
griffiths
bracteata
1658
subtilis
syd
1735
##bauer
schar
physi
kalla
##đông
##omela
baran
##dona
biella
chaney
bré
##èle
##cona
asin
##770
moan
tropido
shields
ruff
apu
gout
hasdrubal
hijikata
kuwert
odoacer
trachelas
ranellidae
anekal
hattrick
itanium
kurdistan
magyar
pledis
oblongifolia
mundo
rutenberg
jetstar
bazar
ropica
mogami
##ool
ilhwa
microcarpa
pí
##4000
praeger
interpet
abdominal
storena
marqu
masan
##spiel
hinata
aere
##naro
sồn
beroth
##trap
týp
##ify
##yrium
img
bựa
##ưởng
bahn
longmans
caleb
diarra
tyrell
rhyncho
surin
##range
layla
##uốc
syri
williston
##wings
vaud
083
##194
##male
##email
##úc
grun
beria
coon
laeta
##yasu
kuna
##sad
biwa
aura
##obium
##potamogetonaceae
crest
##nigra
1526
##89747
##ophyte
##sila
gond
anthrac
069
##cyon
crab
euscel
jurgen
karpov
##bergen
inver
plane
1742
endr
korei
##usei
##mix
##487
garibaldi
gretchen
kreuznach
mascherano
mátthêu
osorkon
pimenov
decision
kathryn
kanakapura
macmahon
desmosoma
origami
wormaldi
matilda
nightwish
higashi
entente
rubinstein
fasciculata
loxo
cristata
takeuchi
riparia
felice
ignatov
poulsen
##leading
nassariidae
bunny
##witch
##èvre
0143
redondo
jvc
macrantha
##ladá
##ougou
kanto
kiska
pithec
1559
cyanea
##vos
rafale
ecc
sensei
dvina
bloc
wid
##ostemma
##rique
##pov
##agina
sector
schub
##rson
izz
##dome
indus
phobos
##ddington
reinhardt
birk
kiki
anthem
cites
machines
evra
##metric
exist
##messina
##ário
muda
leptocer
##octis
1010
##bienes
##fred
1659
##arque
##366
kurtz
##178
dềnh
comba
noise
##750
##ría
##dachi
##eque
aidan
velutin
033
##pyxi
kiku
rhodi
ourat
gumi
ssa
057
beetle
##kanahalli
##rje
sila
bop
##berti
amphisbaenidae
bernoulli
cerberus
demetrius
lôtariô
nickelodeon
pergamon
tullgren
error
heskey
thunderbird
shamrock
clavatul
djemba
knapp
tezuka
belluno
iosif
brood
eccles
tucson
jfk
nanyang
##ecchi
rieti
desire
##opalum
suisse
vassili
icb
chỏng
nair
tull
##lzer
1649
8416
thuân
hochr
collier
##adensis
##sadole
1635
hours
blatt
piet
vetra
schau
farw
##gino
grosser
haji
##therium
scapani
##dap
cuôc
ghat
##élé
##aranea
tivo
underw
##ambu
sele
##antes
##bv
##schl
elly
1593
ivor
##dzha
desf
castane
pér
cyph
fage
##omia
##licola
tamura
##stena
##belle
##ykov
freya
formos
archae
pano
##chou
calcio
comme
0903
boleslav
craugastor
hantuchova
lysimachos
michoacán
tikhvin
tequila
christensen
myrsine
proxima
cerithiopsidae
vitesse
artigas
fergie
robocon
verrucosa
kediri
negev
wittenberg
hellcat
bogart
malagasy
intricat
cartier
trập
giselle
taranto
##elamangala
ústí
ballmer
##valli
mariuytx
candice
##rale
burning
jojo
salaam
moines
ants
##tocera
bacca
lyons
##thep
mangut
##cik
parn
1651
lớ
abby
vella
danielle
pyrit
uribe
fimbri
##penthes
discover
loá
021
lucca
sample
truck
pleur
stenelm
##epalli
##pay
##ostethus
neh
saman
rapids
bigi
##pap
cheer
biata
##uros
scotch
marble
usta
##ignol
##309
latif
speer
1075
##viridis
##strangali
##speed
1685
##cope
vón
##pir
ayva
##izumi
biro
octavia
ròn
##resh
##ompha
valde
tich
hollande
spheno
faces
##190
1490
anxelmô
godavari
gurjeva
muhlenbergia
phỗng
rhapsody
sapphire
spaghetti
bambang
cheyenne
carmichael
aurantiaca
saffron
makerere
ammothella
liberal
superior
enhanced
harmonica
stanislav
cassandra
monoxit
villanova
ochoa
hepta
excelsa
tonkinensis
tóp
kamiya
formicidae
napier
kaname
lenore
torqua
##pense
beats
fukuda
mance
casco
rhopalo
audition
enfield
##mby
magnum
murr
protect
##opelma
winkler
##mobile
##waki
##ehud
peroxide
sparks
##lko
kaji
##erita
bmg
kojima
##gnac
belov
leila
diến
vass
ventura
##gini
galactic
václav
##toy
1516
##zler
itt
picea
##166
thap
067
##710
##cour
poc
carpin
lorde
2046
hunz
dello
merck
##ềm
longman
##376
cyclop
##encia
##itude
insider
lade
##iptur
kều
roots
##251
##sach
length
boyer
campan
##xô
##roid
sakha
##ural
metcalf
isc
rỉa
##ovskaya
buster
dimidiat
038
dodo
meloe
amiđan
clidemia
hẽm
mantellidae
vásquez
hosokawa
sanskrit
ambigua
carleton
fresno
evarcha
rostrata
costinha
alamein
nishimura
initial
keegan
clovis
charity
seneca
isoetes
airasia
construct
henriette
adaptation
semit
##sep
shocker
##logue
1111
kishi
contributions
lunar
denny
##gera
aq
melit
jame
glauco
tbd
wrightii
bandung
characters
##nicola
##fli
##chung
dastan
celia
##alayam
##eshwar
##eyi
1260
##nabe
##ertz
nazar
imper
carnos
airline
trance
xổng
##119
styri
leland
##urum
mather
weiz
octa
consist
ryong
protoneur
hopea
##mecklenburgische
races
beam
##cene
lectures
boyz
haemat
skill
hina
henryi
lhot
paladi
slot
##ambe
colors
valli
avec
bret
shaba
arnell
puglia
##omic
heide
##osco
podo
jimmi
kirin
##bayashi
##hydrocharitaceae
adebayor
bernadotte
caracalla
chungcheong
fahrenheit
mycteridae
onobrychis
seenplatte
strategic
acrylic
castanopsis
graduate
flamenco
kilôgam
ẹo
malinovsky
##postega
nunomura
brachymeni
clusiaceae
perrotta
devonport
edna
rufipes
blaise
donghae
vestita
promotion
tyrol
moving
yavuz
##puy
transformation
editors
fimbriata
1565
hentz
finish
maku
sumatrana
goose
đụ
shangri
ngâu
##ronic
bẽo
babe
mace
gía
anni
nez
loves
veng
lauder
##cobius
antiqu
internal
ips
##wali
1408
##peang
lựng
rhaphido
groove
yogi
salah
##nigs
fuchsia
dhar
##mang
chiron
##elik
tephr
hyatt
dsp
bsi
##173
kav
kyiv
##zhan
carotene
##irensis
1558
kluge
jama
unas
lytta
ariana
xoi
okb
justinian
fogg
pesca
##141
ót
##duhoc
##ujin
##wise
pura
##mode
nika
##erli
bụ
mikhailov
##rè
lanata
##osella
lepidiu
depress
separat
##bamba
##áng
##osilis
##889
orbis
apis
programs
aguinaldo
autobiography
brokeback
byrsonima
collapse
haflinger
jacinto
latreille
lizarazu
maddox
palaiologos
pantheon
pitchfork
péringuey
thymoites
wawrinka
thuộm
pellenes
abyssinia
helicto
sondrio
gatling
cataset
boivin
trắm
ctrl
##ipalpis
downtown
faulkner
tunnel
ainu
hoắm
musicians
riêu
exxon
gurion
sverdlovsk
chũm
gregorius
nựng
zee
griffithii
barkley
gằm
alegre
crispa
lidé
bql
nasir
konami
tvm
1702
rubidi
sẩn
##ffff
##ciano
dánh
##trum
##phore
1533
proof
teutons
058
features
pepsico
harpa
wander
suturalis
stereophyll
pentaca
##206
##zoku
##alata
##shun
##romus
gory
guara
xuông
trach
##marginatum
##azole
##chman
leno
##zik
palestin
ete
hino
##ivora
ivoire
delete
##abilis
petrus
umar
##reggina
satin
yaya
callisp
ăc
ptilo
coerule
hern
vela
umbra
lingua
##ards
niyo
prest
##ebu
##kodi
##rophyllum
1150
gere
##wala
oblonga
##terol
##mita
##mune
vọ
##cac
##opia
bury
clio
##85532
veg
arborea
##rigo
yaroslav
berdych
aeschynomene
agrippina
carthago
chittagong
cléopatre
djoser
elbaradei
flexuosa
gorbachyov
ittihad
jankulovski
lothringen
mcclure
pravda
qumran
zvonareva
andropov
lđlđ
twelve
prototype
toolbar
qưới
coat
luzula
session
samaritan
yuuki
hashem
vespasianus
shonen
proview
đná
pacino
tyumen
##eath
mughal
shelton
triangularis
gpmb
ginny
khúm
rutheni
colbert
gers
chòe
ðản
##meier
sieber
##rage
standing
seminar
quintus
1568
vesta
kpop
filter
questions
narai
ghè
##180
marn
##orno
corymbi
valois
teres
dăng
rajah
romantic
phap
koenig
##lapa
##stam
chiesa
ancylo
rossini
kanu
parkman
cabir
##tein
odi
romain
##horema
midori
internationale
melk
##furt
fabien
een
gmelin
quạng
ẹp
##same
##zetta
##logi
##horia
##447
humphreys
##glyph
##annon
actino
##êx
##mez
provi
##280
##dev
jackman
vsp
kies
morten
perro
alten
##wf
dufoure
balkans
hã
ichir
exile
sơmi
bigot
##spatha
anderb
hallier
##zyg
gaule
##onoma
##117
balsam
immortal
fushimi
guatemalensis
indefatigable
intrepid
kuerten
kvitová
peleliu
sobekhotep
solskjaer
willamette
cortisol
cybianth
loomis
ximăng
lockhart
agincourt
albright
sitticus
biswas
lactose
summary
##territorial
certain
crassipes
cchc
rayleigh
kaulf
đễnh
yaroslavl
apoc
dfb
juneau
ledger
meghan
##oara
fargo
simao
getty
killed
ohashi
accept
chá
parvus
##tua
##640
carina
##imarga
rùi
satô
outer
8417
sẩm
bocage
naoko
mikawa
##signed
schrader
1718
depressa
occult
fluor
potamogeton
parton
throsc
##strigosa
dove
litt
##tomys
cultura
1619
persik
newsom
marsha
##otoma
surf
mủng
rhea
##oeridae
##fumi
1394
##tinga
##konak
##476
kennel
friedel
missy
olivin
bely
belen
diop
##554
clathr
trùn
##ession
sufi
gak
sêri
##katte
zeng
##mpuni
glomera
##riga
sokol
matri
ples
larva
##tapur
##bom
##yrodes
##bori
##itha
##ismo
lysi
birch
baton
##arre
##ạt
##buck
teino
azkaban
bithynia
boboiboy
corticosteroid
dedicated
dubrovnik
encyclia
grenoble
hrbaty
lyssomanes
qwerty
scully
stavropol
swahili
swedish
thutmosis
tyreese
cervantes
maytenus
vucinic
graffiti
resistance
takizawa
fribourg
lewinsky
belgian
pancaro
laxiflora
ecological
chlorocyphidae
emerald
jelly
poggio
narnia
petrelli
varela
austrodecus
028
giập
##fascia
rutaceae
gow
sticto
jetman
##azzi
##hni
argostemm
janice
poems
cest
magnet
##vp
##uban
rms
contents
stab
fermion
carbo
savio
equal
jind
##ilabris
##treta
##dac
đatp
##rette
1220
ehrenberg
##inervia
crm
dechy
##ternum
amphibi
prés
##atella
tosu
##ỉnh
incana
helico
vx
sanyo
nfl
furu
bashir
##ntze
superba
##nucle
##unde
thou
loved
navas
##123
##293
peli
##286
##lens
bridget
nicomed
mouth
##rja
##chik
carotenoid
temps
nghỉu
ics
khú
opening
karpat
rfa
##fax
##oideum
##mastus
##868
##vote
pota
urbana
aso
taenio
##awski
flute
pegu
##kali
khệ
##xantha
soph
##cnemia
##jr
##style
soap
erinace
##seco
pear
kudo
##socia
gf
ifc
aphano
lup
##jiang
##fors
aspartame
bethesda
cathode
described
kadyrov
mermessus
mitochondrial
pittosporaceae
bovidae
khwarezm
rheims
partition
aphodi
corinna
aerosmith
firefly
triangle
matsumura
hirohito
gyeongju
filo
blackwall
treatment
landmark
pusillus
meigen
keitel
gulag
fuen
##nevra
kingsley
komatsu
yaku
decker
7857
lice
kitag
mafic
sauropod
phenyl
meadows
barroso
weekend
election
bogo
##erold
blunt
principal
psychomyi
savan
##ality
meson
riders
digit
kernel
able
arenas
tsune
tura
populations
huý
##polskie
##810
##pack
pinnata
##dihalli
nagai
moshe
complet
xxii
1007
setosa
##ườn
##mnium
schill
1429
globo
##clorua
##dden
thuât
vico
saiyan
##erio
ankyl
##cian
suda
vats
tragia
devan
barone
arce
##ịch
mathews
##forme
##338
##beli
noor
##vata
##208
1694
cabal
##yphantes
sela
nicolai
reflex
perdi
##strup
sirik
##zhe
backeb
penca
paik
volcano
##flower
guar
lauda
##tifolium
butte
spinola
remo
albicans
himachal
komsomol
mosquito
senusret
songkhla
zhuravleva
ochyroceratidae
composer
napalm
fairfax
dundee
distance
denticulata
conversation
gliese
sakamoto
amoena
okocha
steere
bahnar
actini
pacifica
miroku
##ibidion
esben
phoradendr
geiger
moesia
docomo
dali
shooting
dẩn
división
##ivity
##ksan
##feldt
rupr
giuliani
điêng
egyptian
phet
lomaria
nitidul
##qué
ligulari
lolita
##ypsis
##ják
stiller
kde
##ghat
##ried
indu
kipling
##mination
lesson
badawi
goat
lybia
##hex
krum
pò
kabuto
##tard
cortes
##474
8018
katakana
olea
ngườ
049
nuda
napa
fog
##penn
##ehri
chẽn
kassel
##stow
##roga
brunne
##bilbao
##miento
1604
##bisch
weeks
mila
broom
cutter
ebook
marry
##lup
heard
karimi
zaire
musik
##inci
##884
elata
bulan
kich
##oids
numa
align
sorb
gorgon
##ôp
lenti
##ragi
##ghen
walden
##753
alagoas
anyphaena
bellerbys
benavides
cartwright
chụt
enemy
nicôla
schlechteri
sychyovka
wielkopolski
zinoviev
distributed
rootkit
eriosema
activity
puccini
bolbiti
waffen
pillans
ashoka
honour
slavơ
whitehall
peroxit
thẩy
jaén
peruzzi
shamil
hosni
emmett
depend
degen
pinanga
cubensis
leandro
komodo
shingen
depth
estimate
1371
##rmen
cassida
hunting
sabine
##456
lajos
samut
kaze
drumm
ulbr
tomek
polly
##lera
rheni
kerber
tanks
##iodendron
cité
sất
##lito
##ariensis
##lsky
zand
##plect
luong
avc
erecta
##nheim
spach
argentine
sys
fallon
pino
##zka
gillian
pictus
##spot
sonya
##jing
##fair
##tsuji
034
##sonic
spas
citi
##aticollis
##ostes
btt
hymn
verlags
lepidopil
clinopodi
freak
1616
##iron
##rhy
brion
##discus
keres
##pj
nyct
##allg
sandro
citrin
037
##itsch
ngồn
##326
longiflora
tiff
044
##olog
facto
apophyl
##tachi
##rcus
hanse
hog
guiné
##ioideae
đợ
##359
##ening
##kuni
##kopf
gabriella
ziz
nevel
became
##auribi
comparison
djedkare
emissions
geolycosa
goddard
goeben
gyllenhaal
hennessy
incredible
kochummen
pelecopsis
snapdragon
thoroughbred
tochigi
tokusatsu
antelope
mckenna
vollesen
vassilcz
baleares
commerce
velikiy
hypoxidaceae
minamata
tribute
megumi
shishio
alameda
socket
sula
bioware
jelena
cadimi
disaster
##vaz
##ổng
westeros
hitomi
damage
bojer
emarginata
elytr
procera
romario
vulpi
nhiện
##409
draper
##zhu
mood
finnan
malla
kosh
export
saline
blink
##rund
ghan
ideas
isabela
##nó
norah
erika
jf
##từ
crook
mauser
saunier
virgo
rear
##anella
ử
##kil
miner
privat
otis
mackay
##liver
##068
##onella
##loh
shaft
katyn
trichonisc
volker
fél
##237
tycho
castiel
073
jw
##bourn
##dern
##ffy
cystopteri
##spila
utilis
##ezi
##127
juliana
##org
##tef
alaba
1748
##elder
haley
##goensis
calliandr
winning
1667
7851
seul
##triton
##avadi
boliviensis
buddleja
ctesiphon
episinus
flickr
jamaicensis
kharkiv
lourteig
phlegra
sméagol
##191
fragrans
timoshenko
indochina
platanthera
procumbens
hampson
graeme
lycopen
lucasfilm
flachi
kozlov
doubt
##boe
hosanag
kirkland
premiere
uniflora
fanning
miyuki
affair
kingsman
pieridae
##209
corti
##143
dác
hooper
##palpus
barclays
##omir
imperator
##times
##liman
swamp
halder
##ève
hadron
##ischer
##nada
ferre
1721
casar
##wort
cadore
apps
brenan
candidate
palla
lúi
vfd
##blemma
mayen
highlands
syed
##ouville
lachn
jana
aulet
panay
lepiso
calea
platyarthr
##cũng
yukio
##ongo
myst
hamza
natale
9716
brachystelm
##vum
046
##hantus
##rbe
##erga
passal
giants
##ptero
##049
lack
##olino
099
taku
ives
daley
butter
##tđt
##terre
##ethyl
abdi
plays
berri
##vald
ovid
##236
ability
tosa
temno
065
##stand
ruka
italiana
##lif
macy
##nagiri
lineatus
sulphur
calligonum
cheetah
demichelis
elektra
hakkâri
hitzfeld
hollyhock
oxytocin
théâtre
vinpearl
zaccheroni
zanpakut
đkđt
đulxinêa
ướm
barangay
calypogeia
commodus
vqg
ephemer
caravelle
lourdes
centromerus
medicago
vingroup
okamoto
pekerman
ryazan
rochelle
osnabr
mucronata
musée
thapki
legendary
mckay
pollock
megawati
valiant
papaver
olsson
monique
lotso
almeda
bouches
##cab
stacy
macrostyl
##wave
ahmet
frac
##costatus
orhan
drone
##990
forth
clos
##393
yuen
thalia
bizon
couto
##ewski
jala
perform
infra
gull
accu
klang
ðôn
##sali
bulgari
ponti
##kiri
sộp
1611
bura
##shkov
##rimana
norbert
bonnet
##ttinger
crossing
pyra
##ramea
##vice
##holz
##phylax
skip
stell
lotion
##borne
margarit
##rty
lichen
chămpa
aiden
##piriya
1677
samos
##forte
nhứ
đômen
karan
ortak
dart
##gyo
mattf
divo
nhạnh
##liner
dept
##oscelis
harman
sabice
##evka
##ỡm
1629
avisp
##vak
nớ
clow
loving
rupi
specific
broz
zhen
ophrys
##odina
##acy
kraus
stadio
glyphony
vellozia
hiđro
soter
balthazar
bruyns
cataphract
centuries
chhattisgarh
cultivar
extensive
kelantan
previous
rosyth
scooter
stilicho
ticonderoga
tuscaloosa
ubtvqh
welwitschi
cartagena
gaultheria
laevigata
battista
litsea
doukas
pityro
castelnau
mallory
##éndez
arirang
lattre
saarland
spectre
manson
turkey
protease
hideki
bosworth
steenis
growing
steffi
rhamnus
banksia
marchena
gracil
invention
##457
senegalensis
maronite
nitidus
sển
gawl
##rster
chuang
##enden
##glen
hamster
giòi
appalachian
##158
##lide
##ượ
miser
granat
winners
##qr
##477
##server
##hòa
##rát
##171
molli
nikol
##vati
dorian
wasser
antoch
éd
ricin
salisb
##jac
##marginatus
mining
1555
wij
##anii
toma
##orhina
##268
glycos
nomia
toto
marginatus
##enbaum
##polo
masashi
gladys
##jev
aleuropl
subsp
1704
jimi
ond
fedor
melodi
franti
##375
wab
angelos
spiral
hose
##rgensen
##hagen
##tey
jew
muric
calorie
xero
leskea
##teen
hyla
##itia
##583
often
ssl
##etii
##gone
##chúng
marginell
briton
karg
##erle
036
woon
1636
wilk
##sidla
craft
##ezirk
pend
##night
arkhangelsk
argiope
chlamydomonas
dissertation
gennady
hussain
jesús
linyphia
machiavelli
phernanđô
tadeusz
tibouchin
trochanteriidae
uloborus
viguiera
warspite
yanukovych
yteco
animax
fairchild
seligeri
barnsley
bucure
ethnic
saxicola
thsct
vicenza
alfken
ibarra
##heriades
antlers
augustinô
burnham
feliciano
bruges
alphabet
fallout
watchmen
kinase
spector
gymnomitri
megastar
alticola
agyll
geology
zoll
##ibility
raynor
thru
terminus
lublin
bianchi
##ogh
beryl
gaillard
isidor
poppy
azar
dollars
hori
prông
wolfe
##picta
1664
##terna
kyaw
##sagi
alaric
luyên
alley
##baldo
codec
leptoneta
hooc
hauman
amip
##celle
##sticta
bertie
biang
đàu
imperia
pct
naturalist
jordi
citri
alumina
dinosaur
sodium
ró
079
soldat
trois
malva
##ticornis
cnet
##crypta
additional
##8000
suva
pym
##sơ
##foss
afa
##celta
shwe
calling
tâp
##kumar
aces
ancyl
tetraloni
##beni
trading
caerul
pampa
orbit
zou
##lisse
pmc
bagh
lons
parl
cypho
##ượng
partner
ashur
yuta
grisea
westerwald
##193
taichi
khắn
##149
balbi
scrap
andrzej
bareilles
camcorder
chxhcnxv
greyhound
herodotos
madrigal
maghreb
mcclintock
mohamedsaid
trondheim
vitória
vovinam
zawahri
zwickau
aubrév
dúa
carbine
syndrome
yamazaki
crasped
fanclub
ruz
nordhausen
discovered
##ervez
airplay
moyle
khoắt
ragnar
elliptic
##tamine
possible
girona
muriel
lestidae
tedder
shuffle
##leptura
##ád
vences
##arde
shonan
tajik
emotion
ansi
aida
testing
##jiangensis
lếu
##ầm
lied
đhsp
kidder
supply
##uyên
086
woodland
berez
bebe
adriana
##aert
amon
palladi
civita
tcl
fender
vesiculari
ambrosio
nephrolepi
horne
##opsida
##zem
1571
##051
yuka
chopra
asher
hodge
##desmus
bowles
##lictus
xàm
##dav
##118
nass
zool
edda
##138
##tuk
##ipetala
timber
breu
bili
##432
arie
shall
masao
orectog
##nitens
1655
guerin
kẹ
mantra
cornu
##unca
teller
##enhausen
ahh
einer
ebro
retina
yuna
xiph
sharia
##iếu
##gửi
laver
bhd
jahre
##niki
9720
##idad
dellas
moose
supra
##atarba
##rozh
leonhard
upton
##506
fujita
##264
amaur
grig
##ochus
##ihalli
##oui
silesi
##580
##ichx
strait
##lbe
bvhtt
gaudich
agamemnon
antietam
bazaine
châlons
haworthia
hertfordshire
hokusai
józef
khểnh
mielichhoferia
nicolás
phidippus
phoroncidia
potosí
rhaphum
screensaver
subteam
syrrhopodon
trẽn
charoen
observations
kawabata
braxton
meas
krylov
mehmet
holloway
gynoxy
gothenburg
thrixsperm
albuca
battleship
liberation
pooh
adrenaline
simón
mendez
cabral
directed
pallium
hoét
kaori
nomen
techniques
remove
##verek
##lđ
having
handley
schoe
dubius
magnetic
costaceae
##llina
labat
1370
presentation
##assar
jeune
##teborg
##scription
##thing
proper
dichotomi
##vv
boise
meyde
nix
##fera
anchor
plect
##ách
kani
##olina
bras
brei
ammoni
frid
armen
khalkh
marr
fill
nurse
##sinh
pse
##059
kristian
##orhynchites
sisyr
syne
##skt
##ersheim
rothm
gotland
messa
webera
##kker
passage
094
##tamus
trè
##imir
tobin
##304
##stelma
##getafe
gets
acuta
boku
##peta
##570
galact
harada
amore
##helm
1732
yeom
kaf
jee
nễ
##ornith
ehren
scol
hollis
adonis
hieu
kurf
porn
##itensis
agon
1752
caine
casale
naturelle
surround
oliu
##will
088
diode
umbros
##oceras
comple
gym
persea
hylocomi
abdulaziz
bowditch
mysql
pembroke
qủa
morphology
armavir
mcclane
factbook
narcissus
thanhnien
default
iupac
mascarene
biscay
gnoph
mrkos
##ttu
brauer
harlow
rubber
caramel
salmonella
quynh
jemaa
liếp
smyth
monteiro
kerama
cryptorh
carnot
nhậy
tanjung
bianca
showing
##brach
dobson
abies
lammers
interpretation
misaki
diển
nome
shri
sinica
sequences
076
##dab
cesc
boott
păng
##363
bears
huyến
ranma
freeze
1727
##doi
micromet
albani
##izzi
##velle
losey
kuhl
deere
##dros
speaker
appendicula
comps
rainier
grossman
hapl
##girt
##robe
kangal
##501
toll
rode
mania
1519
1470
thesis
barnett
1632
##gnoli
nhợ
suan
##bologna
##tinae
renner
connors
##373
lehman
##abka
types
daeng
##pital
vât
##shchenko
##atak
vanden
bongo
##vensis
napo
ozon
1076
##odytes
fbl
##991
gabi
##utlu
##thar
##iyya
packer
ultima
baryon
abutilon
andalucia
boniface
burgenland
dwayne
eintracht
emblyna
furtado
guernsey
huoai
lứt
olacaceae
rovigo
translator
umayyad
##qvist
boud
ichthyology
poynton
antóni
diogmit
tactics
iloilo
revival
organisation
mallinella
khali
shirakawa
hellenic
moresby
pohang
marlene
mikkel
saratov
grohl
hilltop
moreira
##tq
repert
ararat
jahan
fels
activex
boronia
schatz
##iêng
transactions
begin
created
takagi
swanson
##ophura
grund
murex
markham
paulista
cafein
botanical
uhf
cake
041
xồ
##ochilum
peek
##ovna
soror
##shov
opteron
custer
##ulifolia
imac
##raud
lesser
##kamatsu
1225
kalam
necro
##blanc
reu
##taria
genie
sabi
ethyl
wef
##assem
zimmerman
hado
cyrt
giôn
##kane
##tigen
decora
ophiogloss
##số
##tuan
1646
##phes
osc
##screen
##496
punta
stellar
##ippo
##road
brevicorn
alia
cambria
mink
pirate
diaea
gtp
wied
malan
repand
##147
chalk
mế
##ghar
roku
##xworthy
nye
meyen
##caulon
##accia
7200
feral
spit
contribution
##910
finals
2023
labour
wyk
galveston
internacional
ipiros
makhachkala
meissner
muldoon
nghẽo
orkney
reykjavík
richthofen
ridsdale
sciaridae
synthemistidae
vndcch
ascension
endrody
beschreven
tobacco
amelio
cappella
vistula
francillon
servant
littoralis
schmitt
apatit
leucoloma
bamboo
metropolis
grunge
zapata
obtusifolia
dengue
diaby
hobby
royle
usgs
neckar
coruna
1545
presented
gnaeus
flocc
cognac
##opappus
xụ
orwell
views
collette
##malaga
pontos
jpg
cacbonic
##centrum
[...]
